#include "magic_wand_model_data.h"

// We need to keep the data array aligned on some architectures.
#ifdef __has_attribute
#define HAVE_ATTRIBUTE(x) __has_attribute(x)
#else
#define HAVE_ATTRIBUTE(x) 0
#endif
#if HAVE_ATTRIBUTE(aligned) || (defined(__GNUC__) && !defined(__clang__))
#define DATA_ALIGN_ATTRIBUTE __attribute__((aligned(4)))
#else
#define DATA_ALIGN_ATTRIBUTE
#endif

const unsigned char g_magic_wand_model_data[] DATA_ALIGN_ATTRIBUTE = {
  // Paste the data of the char array in `src/model.cc` here
0x08, 0x00, 0x00, 0x00, 0x54, 0x46, 0x4c, 0x33, 0x62, 0xff, 0xff, 0xff,
  0x03, 0x00, 0x00, 0x00, 0x10, 0x00, 0x00, 0x00, 0x24, 0x00, 0x00, 0x00,
  0x78, 0x00, 0x00, 0x00, 0x24, 0x00, 0x00, 0x00, 0x05, 0x00, 0x00, 0x00,
  0x78, 0x05, 0x00, 0x00, 0xb0, 0x04, 0x00, 0x00, 0xe0, 0x02, 0x00, 0x00,
  0x60, 0x02, 0x00, 0x00, 0x54, 0x01, 0x00, 0x00, 0x01, 0x00, 0x00, 0x00,
  0x78, 0x00, 0x00, 0x00, 0x13, 0x00, 0x00, 0x00, 0x18, 0x30, 0x00, 0x00,
  0x14, 0x30, 0x00, 0x00, 0x20, 0x2f, 0x00, 0x00, 0xa8, 0x2e, 0x00, 0x00,
  0x3c, 0x2e, 0x00, 0x00, 0xec, 0x11, 0x00, 0x00, 0x98, 0x10, 0x00, 0x00,
  0xbc, 0x0e, 0x00, 0x00, 0x60, 0x06, 0x00, 0x00, 0xfc, 0x05, 0x00, 0x00,
  0x78, 0x05, 0x00, 0x00, 0xec, 0x2f, 0x00, 0x00, 0xe8, 0x2f, 0x00, 0x00,
  0xe4, 0x2f, 0x00, 0x00, 0xe0, 0x2f, 0x00, 0x00, 0xdc, 0x2f, 0x00, 0x00,
  0xd8, 0x2f, 0x00, 0x00, 0xd4, 0x2f, 0x00, 0x00, 0xd0, 0x2f, 0x00, 0x00,
  0x0f, 0x00, 0x00, 0x00, 0x4d, 0x4c, 0x49, 0x52, 0x20, 0x43, 0x6f, 0x6e,
  0x76, 0x65, 0x72, 0x74, 0x65, 0x64, 0x2e, 0x00, 0x00, 0x00, 0x0e, 0x00,
  0x18, 0x00, 0x04, 0x00, 0x08, 0x00, 0x0c, 0x00, 0x10, 0x00, 0x14, 0x00,
  0x0e, 0x00, 0x00, 0x00, 0x14, 0x00, 0x00, 0x00, 0x5c, 0x00, 0x00, 0x00,
  0x60, 0x00, 0x00, 0x00, 0x64, 0x00, 0x00, 0x00, 0x84, 0x00, 0x00, 0x00,
  0x12, 0x00, 0x00, 0x00, 0x48, 0x2f, 0x00, 0x00, 0xe4, 0x2e, 0x00, 0x00,
  0x3c, 0x2e, 0x00, 0x00, 0xd8, 0x2d, 0x00, 0x00, 0x70, 0x2d, 0x00, 0x00,
  0x1c, 0x11, 0x00, 0x00, 0xc0, 0x0f, 0x00, 0x00, 0xe4, 0x0d, 0x00, 0x00,
  0xa0, 0x05, 0x00, 0x00, 0x3c, 0x05, 0x00, 0x00, 0xb0, 0x04, 0x00, 0x00,
  0xe8, 0x03, 0x00, 0x00, 0x38, 0x03, 0x00, 0x00, 0xa4, 0x02, 0x00, 0x00,
  0x10, 0x02, 0x00, 0x00, 0x90, 0x01, 0x00, 0x00, 0xfc, 0x00, 0x00, 0x00,
  0x80, 0x00, 0x00, 0x00, 0x01, 0x00, 0x00, 0x00, 0x00, 0x00, 0x00, 0x00,
  0x01, 0x00, 0x00, 0x00, 0x11, 0x00, 0x00, 0x00, 0x08, 0x00, 0x00, 0x00,
  0x1c, 0x04, 0x00, 0x00, 0x58, 0x03, 0x00, 0x00, 0xc8, 0x02, 0x00, 0x00,
  0x24, 0x02, 0x00, 0x00, 0xac, 0x01, 0x00, 0x00, 0x10, 0x01, 0x00, 0x00,
  0x94, 0x00, 0x00, 0x00, 0x10, 0x00, 0x00, 0x00, 0x04, 0x00, 0x00, 0x00,
  0x6d, 0x61, 0x69, 0x6e, 0x00, 0x00, 0x00, 0x00, 0x8e, 0xff, 0xff, 0xff,
  0x00, 0x00, 0x00, 0x09, 0x04, 0x00, 0x00, 0x00, 0x1c, 0x00, 0x00, 0x00,
  0x10, 0x00, 0x00, 0x00, 0x04, 0x00, 0x00, 0x00, 0x0a, 0xd2, 0xff, 0xff,
  0x00, 0x00, 0x80, 0x3f, 0x01, 0x00, 0x00, 0x00, 0x11, 0x00, 0x00, 0x00,
  0x01, 0x00, 0x00, 0x00, 0x10, 0x00, 0x00, 0x00, 0xf6, 0xfb, 0xff, 0xff,
  0x00, 0x00, 0x00, 0x19, 0x01, 0x00, 0x00, 0x00, 0x8a, 0xd1, 0xff, 0xff,
  0x10, 0x00, 0x00, 0x00, 0x12, 0x00, 0x00, 0x00, 0x14, 0x00, 0x00, 0x00,
  0x20, 0x00, 0x00, 0x00, 0x02, 0x00, 0x00, 0x00, 0x01, 0x00, 0x00, 0x00,
  0x04, 0x00, 0x00, 0x00, 0x08, 0x00, 0x00, 0x00, 0x49, 0x64, 0x65, 0x6e,
  0x74, 0x69, 0x74, 0x79, 0x00, 0x00, 0x00, 0x00, 0xc4, 0xd1, 0xff, 0xff,
  0x00, 0x00, 0x0e, 0x00, 0x18, 0x00, 0x08, 0x00, 0x0c, 0x00, 0x10, 0x00,
  0x07, 0x00, 0x14, 0x00, 0x0e, 0x00, 0x00, 0x00, 0x00, 0x00, 0x00, 0x08,
  0x03, 0x00, 0x00, 0x00, 0x18, 0x00, 0x00, 0x00, 0x0c, 0x00, 0x00, 0x00,
  0x04, 0x00, 0x00, 0x00, 0x98, 0xd1, 0xff, 0xff, 0x01, 0x00, 0x00, 0x00,
  0x10, 0x00, 0x00, 0x00, 0x03, 0x00, 0x00, 0x00, 0x0f, 0x00, 0x00, 0x00,
  0x05, 0x00, 0x00, 0x00, 0x02, 0x00, 0x00, 0x00, 0x02, 0xd2, 0xff, 0xff,
  0x10, 0x00, 0x00, 0x00, 0x11, 0x00, 0x00, 0x00, 0x14, 0x00, 0x00, 0x00,
  0x30, 0x00, 0x00, 0x00, 0x02, 0x00, 0x00, 0x00, 0x01, 0x00, 0x00, 0x00,
  0x04, 0x00, 0x00, 0x00, 0x1a, 0x00, 0x00, 0x00, 0x73, 0x65, 0x71, 0x75,
  0x65, 0x6e, 0x74, 0x69, 0x61, 0x6c, 0x2f, 0x64, 0x65, 0x6e, 0x73, 0x65,
  0x5f, 0x31, 0x2f, 0x42, 0x69, 0x61, 0x73, 0x41, 0x64, 0x64, 0x00, 0x00,
  0xf4, 0xd1, 0xff, 0xff, 0xd6, 0xfd, 0xff, 0xff, 0x00, 0x00, 0x00, 0x08,
  0x03, 0x00, 0x00, 0x00, 0x24, 0x00, 0x00, 0x00, 0x18, 0x00, 0x00, 0x00,
  0x0c, 0x00, 0x00, 0x00, 0x00, 0x00, 0x06, 0x00, 0x08, 0x00, 0x07, 0x00,
  0x06, 0x00, 0x00, 0x00, 0x00, 0x00, 0x00, 0x01, 0x01, 0x00, 0x00, 0x00,
  0x0f, 0x00, 0x00, 0x00, 0x03, 0x00, 0x00, 0x00, 0x0e, 0x00, 0x00, 0x00,
  0x04, 0x00, 0x00, 0x00, 0x01, 0x00, 0x00, 0x00, 0xfe, 0xfc, 0xff, 0xff,
  0x00, 0x00, 0x00, 0x09, 0x01, 0x00, 0x00, 0x00, 0x92, 0xd2, 0xff, 0xff,
  0x10, 0x00, 0x00, 0x00, 0x10, 0x00, 0x00, 0x00, 0x14, 0x00, 0x00, 0x00,
  0x2c, 0x00, 0x00, 0x00, 0x02, 0x00, 0x00, 0x00, 0x01, 0x00, 0x00, 0x00,
  0x10, 0x00, 0x00, 0x00, 0x15, 0x00, 0x00, 0x00, 0x73, 0x65, 0x71, 0x75,
  0x65, 0x6e, 0x74, 0x69, 0x61, 0x6c, 0x2f, 0x64, 0x65, 0x6e, 0x73, 0x65,
  0x2f, 0x52, 0x65, 0x6c, 0x75, 0x00, 0x00, 0x00, 0xd8, 0xd2, 0xff, 0xff,
  0x00, 0x00, 0x0a, 0x00, 0x10, 0x00, 0x04, 0x00, 0x08, 0x00, 0x0c, 0x00,
  0x0a, 0x00, 0x00, 0x00, 0x02, 0x00, 0x00, 0x00, 0x10, 0x00, 0x00, 0x00,
  0x04, 0x00, 0x00, 0x00, 0x01, 0x00, 0x00, 0x00, 0x0e, 0x00, 0x00, 0x00,
  0x02, 0x00, 0x00, 0x00, 0x0d, 0x00, 0x00, 0x00, 0x03, 0x00, 0x00, 0x00,
  0x7a, 0xfd, 0xff, 0xff, 0x00, 0x00, 0x00, 0x16, 0x01, 0x00, 0x00, 0x00,
  0x0e, 0xd3, 0xff, 0xff, 0x10, 0x00, 0x00, 0x00, 0x0f, 0x00, 0x00, 0x00,
  0x14, 0x00, 0x00, 0x00, 0x30, 0x00, 0x00, 0x00, 0x02, 0x00, 0x00, 0x00,
  0x01, 0x00, 0x00, 0x00, 0x70, 0x00, 0x00, 0x00, 0x1a, 0x00, 0x00, 0x00,
  0x73, 0x65, 0x71, 0x75, 0x65, 0x6e, 0x74, 0x69, 0x61, 0x6c, 0x2f, 0x66,
  0x6c, 0x61, 0x74, 0x74, 0x65, 0x6e, 0x2f, 0x52, 0x65, 0x73, 0x68, 0x61,
  0x70, 0x65, 0x00, 0x00, 0x00, 0xd3, 0xff, 0xff, 0xe2, 0xfe, 0xff, 0xff,
  0x00, 0x00, 0x00, 0x05, 0x01, 0x00, 0x00, 0x00, 0x38, 0x00, 0x00, 0x00,
  0x2c, 0x00, 0x00, 0x00, 0x14, 0x00, 0x00, 0x00, 0x00, 0x00, 0x0e, 0x00,
  0x14, 0x00, 0x00, 0x00, 0x10, 0x00, 0x0c, 0x00, 0x08, 0x00, 0x04, 0x00,
  0x0e, 0x00, 0x00, 0x00, 0x03, 0x00, 0x00, 0x00, 0x01, 0x00, 0x00, 0x00,
  0x03, 0x00, 0x00, 0x00, 0x01, 0x00, 0x00, 0x00, 0x01, 0x00, 0x00, 0x00,
  0x0d, 0x00, 0x00, 0x00, 0x01, 0x00, 0x00, 0x00, 0x0c, 0x00, 0x00, 0x00,
  0x9e, 0xd3, 0xff, 0xff, 0x10, 0x00, 0x00, 0x00, 0x0e, 0x00, 0x00, 0x00,
  0x1c, 0x00, 0x00, 0x00, 0x40, 0x00, 0x00, 0x00, 0x04, 0x00, 0x00, 0x00,
  0x01, 0x00, 0x00, 0x00, 0x07, 0x00, 0x00, 0x00, 0x01, 0x00, 0x00, 0x00,
  0x10, 0x00, 0x00, 0x00, 0x22, 0x00, 0x00, 0x00, 0x73, 0x65, 0x71, 0x75,
  0x65, 0x6e, 0x74, 0x69, 0x61, 0x6c, 0x2f, 0x6d, 0x61, 0x78, 0x5f, 0x70,
  0x6f, 0x6f, 0x6c, 0x69, 0x6e, 0x67, 0x32, 0x64, 0x5f, 0x31, 0x2f, 0x4d,
  0x61, 0x78, 0x50, 0x6f, 0x6f, 0x6c, 0x00, 0x00, 0xa0, 0xd3, 0xff, 0xff,
  0xc2, 0xfe, 0xff, 0xff, 0x00, 0x00, 0x00, 0x01, 0x24, 0x00, 0x00, 0x00,
  0x18, 0x00, 0x00, 0x00, 0x04, 0x00, 0x00, 0x00, 0xb4, 0xfe, 0xff, 0xff,
  0x01, 0x00, 0x00, 0x00, 0x01, 0x00, 0x00, 0x00, 0x00, 0x00, 0x00, 0x01,
  0x01, 0x00, 0x00, 0x00, 0x0c, 0x00, 0x00, 0x00, 0x03, 0x00, 0x00, 0x00,
  0x0b, 0x00, 0x00, 0x00, 0x07, 0x00, 0x00, 0x00, 0x09, 0x00, 0x00, 0x00,
  0x2e, 0xd4, 0xff, 0xff, 0x10, 0x00, 0x00, 0x00, 0x0d, 0x00, 0x00, 0x00,
  0x1c, 0x00, 0x00, 0x00, 0x2c, 0x00, 0x00, 0x00, 0x04, 0x00, 0x00, 0x00,
  0x01, 0x00, 0x00, 0x00, 0x15, 0x00, 0x00, 0x00, 0x01, 0x00, 0x00, 0x00,
  0x10, 0x00, 0x00, 0x00, 0x0c, 0x00, 0x00, 0x00, 0x74, 0x66, 0x6c, 0x2e,
  0x63, 0x6f, 0x6e, 0x76, 0x5f, 0x32, 0x64, 0x31, 0x00, 0x00, 0x00, 0x00,
  0x74, 0xd4, 0xff, 0xff, 0x00, 0x00, 0x0e, 0x00, 0x1a, 0x00, 0x08, 0x00,
  0x0c, 0x00, 0x10, 0x00, 0x07, 0x00, 0x14, 0x00, 0x0e, 0x00, 0x00, 0x00,
  0x00, 0x00, 0x00, 0x05, 0x01, 0x00, 0x00, 0x00, 0x3c, 0x00, 0x00, 0x00,
  0x30, 0x00, 0x00, 0x00, 0x14, 0x00, 0x00, 0x00, 0x00, 0x00, 0x0e, 0x00,
  0x18, 0x00, 0x17, 0x00, 0x10, 0x00, 0x0c, 0x00, 0x08, 0x00, 0x04, 0x00,
  0x0e, 0x00, 0x00, 0x00, 0x03, 0x00, 0x00, 0x00, 0x03, 0x00, 0x00, 0x00,
  0x03, 0x00, 0x00, 0x00, 0x03, 0x00, 0x00, 0x00, 0x00, 0x00, 0x00, 0x01,
  0x01, 0x00, 0x00, 0x00, 0x0b, 0x00, 0x00, 0x00, 0x01, 0x00, 0x00, 0x00,
  0x0a, 0x00, 0x00, 0x00, 0x46, 0xff, 0xff, 0xff, 0x00, 0x00, 0x00, 0x11,
  0x01, 0x00, 0x00, 0x00, 0xda, 0xd4, 0xff, 0xff, 0x10, 0x00, 0x00, 0x00,
  0x0c, 0x00, 0x00, 0x00, 0x1c, 0x00, 0x00, 0x00, 0x40, 0x00, 0x00, 0x00,
  0x04, 0x00, 0x00, 0x00, 0x01, 0x00, 0x00, 0x00, 0x15, 0x00, 0x00, 0x00,
  0x01, 0x00, 0x00, 0x00, 0x08, 0x00, 0x00, 0x00, 0x20, 0x00, 0x00, 0x00,
  0x73, 0x65, 0x71, 0x75, 0x65, 0x6e, 0x74, 0x69, 0x61, 0x6c, 0x2f, 0x6d,
  0x61, 0x78, 0x5f, 0x70, 0x6f, 0x6f, 0x6c, 0x69, 0x6e, 0x67, 0x32, 0x64,
  0x2f, 0x4d, 0x61, 0x78, 0x50, 0x6f, 0x6f, 0x6c, 0x00, 0x00, 0x00, 0x00,
  0x34, 0xd5, 0xff, 0xff, 0x00, 0x00, 0x0e, 0x00, 0x14, 0x00, 0x00, 0x00,
  0x08, 0x00, 0x0c, 0x00, 0x07, 0x00, 0x10, 0x00, 0x0e, 0x00, 0x00, 0x00,
  0x00, 0x00, 0x00, 0x01, 0x30, 0x00, 0x00, 0x00, 0x24, 0x00, 0x00, 0x00,
  0x10, 0x00, 0x00, 0x00, 0x0c, 0x00, 0x10, 0x00, 0x00, 0x00, 0x04, 0x00,
  0x08, 0x00, 0x0f, 0x00, 0x0c, 0x00, 0x00, 0x00, 0x01, 0x00, 0x00, 0x00,
  0x01, 0x00, 0x00, 0x00, 0x00, 0x00, 0x00, 0x01, 0x01, 0x00, 0x00, 0x00,
  0x0a, 0x00, 0x00, 0x00, 0x03, 0x00, 0x00, 0x00, 0x00, 0x00, 0x00, 0x00,
  0x06, 0x00, 0x00, 0x00, 0x08, 0x00, 0x00, 0x00, 0x00, 0x00, 0x0a, 0x00,
  0x0c, 0x00, 0x07, 0x00, 0x00, 0x00, 0x08, 0x00, 0x0a, 0x00, 0x00, 0x00,
  0x00, 0x00, 0x00, 0x03, 0x01, 0x00, 0x00, 0x00, 0x9e, 0xd5, 0xff, 0xff,
  0x10, 0x00, 0x00, 0x00, 0x0b, 0x00, 0x00, 0x00, 0x1c, 0x00, 0x00, 0x00,
  0x28, 0x00, 0x00, 0x00, 0x04, 0x00, 0x00, 0x00, 0x01, 0x00, 0x00, 0x00,
  0x40, 0x00, 0x00, 0x00, 0x03, 0x00, 0x00, 0x00, 0x08, 0x00, 0x00, 0x00,
  0x0b, 0x00, 0x00, 0x00, 0x74, 0x66, 0x6c, 0x2e, 0x63, 0x6f, 0x6e, 0x76,
  0x5f, 0x32, 0x64, 0x00, 0x88, 0xd5, 0xff, 0xff, 0x7e, 0xd6, 0xff, 0xff,
  0x04, 0x00, 0x00, 0x00, 0x40, 0x00, 0x00, 0x00, 0xf3, 0xb1, 0xbc, 0x3e,
  0xfe, 0xa2, 0xb2, 0xbf, 0x2c, 0xe2, 0x0b, 0x40, 0xae, 0x11, 0x3b, 0xbd,
  0xbf, 0x59, 0x8d, 0x3f, 0x65, 0xb5, 0xaf, 0xbf, 0xe9, 0x69, 0xa4, 0xbf,
  0xa3, 0x7c, 0x1e, 0xbf, 0xec, 0x80, 0x1d, 0xbf, 0xc2, 0x07, 0x17, 0x3f,
  0x66, 0x4f, 0x6e, 0xbf, 0x62, 0xa7, 0x7a, 0xbe, 0x7f, 0xfe, 0x87, 0xbf,
  0xd2, 0x8b, 0x92, 0xbf, 0xdb, 0x70, 0xa5, 0x3f, 0x35, 0x3f, 0xdf, 0xbf,
  0x26, 0xd6, 0xff, 0xff, 0x10, 0x00, 0x00, 0x00, 0x0a, 0x00, 0x00, 0x00,
  0x10, 0x00, 0x00, 0x00, 0x20, 0x00, 0x00, 0x00, 0x01, 0x00, 0x00, 0x00,
  0x10, 0x00, 0x00, 0x00, 0x0d, 0x00, 0x00, 0x00, 0x73, 0x74, 0x64, 0x2e,
  0x63, 0x6f, 0x6e, 0x73, 0x74, 0x61, 0x6e, 0x74, 0x31, 0x00, 0x00, 0x00,
  0x08, 0xd6, 0xff, 0xff, 0xfe, 0xd6, 0xff, 0xff, 0x04, 0x00, 0x00, 0x00,
  0x20, 0x00, 0x00, 0x00, 0xac, 0x49, 0x17, 0xc0, 0xbe, 0x4a, 0xe3, 0xbe,
  0x29, 0x21, 0x08, 0xc0, 0x36, 0x9c, 0x83, 0x3e, 0xfe, 0x49, 0x20, 0xc0,
  0xcc, 0xf9, 0xe6, 0xbe, 0x7a, 0x75, 0xbf, 0x3d, 0x58, 0xe7, 0x34, 0xc0,
  0x86, 0xd6, 0xff, 0xff, 0x10, 0x00, 0x00, 0x00, 0x09, 0x00, 0x00, 0x00,
  0x10, 0x00, 0x00, 0x00, 0x20, 0x00, 0x00, 0x00, 0x01, 0x00, 0x00, 0x00,
  0x08, 0x00, 0x00, 0x00, 0x0c, 0x00, 0x00, 0x00, 0x73, 0x74, 0x64, 0x2e,
  0x63, 0x6f, 0x6e, 0x73, 0x74, 0x61, 0x6e, 0x74, 0x00, 0x00, 0x00, 0x00,
  0x68, 0xd6, 0xff, 0xff, 0x5e, 0xd7, 0xff, 0xff, 0x04, 0x00, 0x00, 0x00,
  0x00, 0x08, 0x00, 0x00, 0xfb, 0x9b, 0x48, 0xbd, 0xca, 0x60, 0x4d, 0xbd,
  0xa9, 0xad, 0x15, 0x3e, 0xcf, 0xff, 0xa3, 0x3d, 0x43, 0x1c, 0x8e, 0xbd,
  0x31, 0xe7, 0x15, 0xbe, 0x4f, 0xd9, 0xdb, 0x3b, 0x54, 0x55, 0xc8, 0xbd,
  0xb1, 0x36, 0xfc, 0xbd, 0x24, 0xd7, 0xaf, 0x3c, 0x82, 0x69, 0xa2, 0x3e,
  0xf4, 0x86, 0x39, 0xbe, 0xc0, 0xa6, 0xb6, 0xbd, 0x47, 0xaa, 0xda, 0xbd,
  0x6d, 0x6f, 0x9c, 0x3d, 0x21, 0xbb, 0x40, 0x3b, 0x9d, 0x04, 0x97, 0xbd,
  0xf3, 0x98, 0x32, 0xbd, 0xfd, 0xbf, 0x8a, 0xbd, 0xbc, 0x3d, 0xe1, 0x3d,
  0x88, 0x25, 0xa8, 0x3c, 0xcb, 0xa6, 0xf6, 0xbd, 0x56, 0x5e, 0x10, 0x3d,
  0x0c, 0x7e, 0xe3, 0x3c, 0x43, 0xbf, 0x4d, 0x3e, 0x34, 0x8f, 0xf7, 0x3d,
  0x0b, 0xb7, 0x55, 0xbd, 0xe1, 0x41, 0xb7, 0x3e, 0x62, 0x06, 0xa4, 0xbc,
  0x15, 0xba, 0x33, 0xbc, 0x4c, 0xa2, 0x82, 0x3d, 0xe0, 0xd0, 0x55, 0xbd,
  0xcc, 0xca, 0x0e, 0x3e, 0xc2, 0x8d, 0xdf, 0xbe, 0xf5, 0x99, 0x79, 0xbc,
  0xe3, 0x85, 0xd1, 0xbe, 0x13, 0x74, 0xaf, 0x3e, 0x32, 0x58, 0xe3, 0x3a,
  0xa0, 0xcb, 0xd1, 0xbd, 0x8d, 0x0c, 0x93, 0x3d, 0x7d, 0xf3, 0x1d, 0x3f,
  0x51, 0x66, 0xbf, 0xbe, 0xc5, 0x94, 0x9e, 0x3c, 0xc7, 0x0d, 0x74, 0xbe,
  0xf5, 0x5c, 0x18, 0xbd, 0xbf, 0x4f, 0x32, 0x3c, 0x2b, 0x93, 0x2d, 0xbe,
  0xe0, 0xe4, 0xca, 0xbd, 0x89, 0x8b, 0x99, 0xbc, 0x36, 0x5d, 0x1a, 0xbc,
  0x31, 0x7a, 0x69, 0xbd, 0x39, 0x2b, 0xb8, 0xbd, 0x06, 0xfe, 0xc1, 0xbd,
  0xf5, 0xe5, 0xa5, 0xbd, 0xcf, 0xcb, 0x1a, 0x3d, 0xa3, 0xdd, 0xab, 0xbd,
  0x42, 0xf1, 0x6f, 0xbe, 0x37, 0x1c, 0x4e, 0x3e, 0x01, 0x7d, 0xb7, 0xbd,
  0xcb, 0x09, 0xd9, 0xbd, 0x46, 0x86, 0x58, 0xbe, 0xbf, 0xed, 0x20, 0xbe,
  0x3c, 0x3f, 0x12, 0xbd, 0x65, 0xac, 0xe3, 0xbd, 0x00, 0x06, 0x0c, 0xbf,
  0x94, 0x7b, 0xdc, 0xbe, 0x70, 0xb1, 0xc7, 0xbd, 0x1f, 0x97, 0x87, 0xbe,
  0x2e, 0xaa, 0xf3, 0xbd, 0xd7, 0x9c, 0x9e, 0x3e, 0x2e, 0xe0, 0x64, 0x3d,
  0xd1, 0x93, 0x06, 0xbd, 0x03, 0x40, 0xef, 0xbe, 0xbd, 0xc6, 0x06, 0xbf,
  0x53, 0x2e, 0x54, 0xbe, 0xbc, 0xd2, 0xff, 0xbc, 0x19, 0xb0, 0x26, 0xbe,
  0x65, 0xb5, 0x6b, 0xbe, 0x4f, 0xde, 0x9f, 0x3d, 0xe2, 0x78, 0x17, 0x3d,
  0x7e, 0xb3, 0xb6, 0xbd, 0x46, 0x45, 0xf3, 0xbe, 0x0d, 0xbf, 0x6b, 0xbd,
  0xbe, 0x05, 0x54, 0xbc, 0xfb, 0x46, 0x8f, 0xbd, 0xf2, 0xc3, 0x29, 0xbe,
  0x6a, 0xe5, 0xc8, 0xbe, 0x5f, 0xe4, 0x55, 0xbe, 0x1e, 0xf5, 0x0f, 0x3e,
  0x07, 0x63, 0xa5, 0xbe, 0xcb, 0x24, 0xbb, 0x3e, 0x64, 0xd5, 0x07, 0xbd,
  0xcc, 0xc2, 0x13, 0xbe, 0xb4, 0x36, 0x85, 0xbe, 0x24, 0xba, 0xbc, 0xbd,
  0x3f, 0xb7, 0x1e, 0xbe, 0x59, 0x7d, 0xc0, 0xbe, 0xb9, 0xda, 0xa6, 0xbd,
  0xbb, 0xa1, 0xac, 0xbe, 0xcf, 0xde, 0x63, 0xbc, 0xfa, 0xcb, 0x73, 0xbd,
  0x3f, 0x4e, 0x1e, 0xbe, 0x7d, 0xbe, 0x61, 0xbe, 0xa0, 0x02, 0xa4, 0xbe,
  0x2f, 0x18, 0xb0, 0xbb, 0xec, 0x23, 0xbb, 0x3c, 0xaf, 0x5c, 0xaa, 0x3e,
  0x46, 0x7c, 0x29, 0x3c, 0x07, 0x79, 0x50, 0x3d, 0x14, 0xef, 0xa4, 0x3c,
  0xb0, 0xfb, 0xd3, 0x3d, 0x0b, 0xe2, 0xeb, 0xbd, 0x49, 0xf1, 0x0d, 0xbf,
  0x19, 0x60, 0xf6, 0xbd, 0xd3, 0x2d, 0xc5, 0xbe, 0x13, 0xe5, 0xca, 0xbd,
  0x44, 0x0a, 0x92, 0x3e, 0x37, 0x02, 0x3f, 0xbd, 0xfc, 0xd5, 0xe8, 0x3d,
  0x69, 0x14, 0xcb, 0x3c, 0x23, 0xef, 0x8e, 0xbc, 0x2b, 0xde, 0x1c, 0xbd,
  0xb3, 0x9b, 0x05, 0xbe, 0x53, 0x18, 0x30, 0x3d, 0x51, 0x11, 0xb0, 0x3c,
  0x0d, 0xf0, 0x41, 0x3a, 0x9b, 0x8c, 0xbc, 0x3d, 0x0c, 0x77, 0x7e, 0xbd,
  0x83, 0x5e, 0xe3, 0x3d, 0x09, 0xe7, 0x0c, 0xbb, 0x5f, 0x26, 0x74, 0x3e,
  0xc1, 0xa2, 0x18, 0x3e, 0xbb, 0x75, 0x52, 0x3e, 0x92, 0x1c, 0x95, 0xbd,
  0x03, 0x86, 0x78, 0xbe, 0x40, 0x2c, 0x85, 0xbe, 0x09, 0xa0, 0x66, 0xbd,
  0x47, 0x61, 0x99, 0xbd, 0xfc, 0x24, 0xee, 0xbe, 0x2c, 0x6b, 0xab, 0xbd,
  0x73, 0x5a, 0x13, 0xbe, 0xdf, 0x73, 0x72, 0x3e, 0x44, 0x4b, 0x4b, 0x3e,
  0x54, 0xa5, 0x98, 0xbe, 0x5b, 0xf0, 0x83, 0xbe, 0xa5, 0xe2, 0xaa, 0xbe,
  0xef, 0x20, 0xf6, 0xbe, 0x58, 0xfa, 0xe7, 0x3d, 0x1e, 0xd9, 0x09, 0xbe,
  0x8d, 0x12, 0xa9, 0x3d, 0xd2, 0x73, 0x28, 0x3d, 0x6d, 0x24, 0x80, 0xbe,
  0x4e, 0x7e, 0x42, 0xbd, 0xb7, 0xe1, 0xc0, 0xbe, 0x76, 0x7d, 0xf3, 0xbe,
  0x9b, 0x3f, 0xd7, 0x3c, 0xc2, 0x48, 0x27, 0x3e, 0xf6, 0xe5, 0x94, 0xbc,
  0x7c, 0x01, 0x37, 0x3d, 0x6a, 0xa0, 0xb4, 0xbe, 0xe1, 0x3b, 0xbb, 0x3d,
  0xe2, 0xfb, 0x69, 0xbe, 0xe7, 0xfe, 0xfa, 0xbc, 0xb0, 0x00, 0xcf, 0xbd,
  0x36, 0x10, 0x93, 0x3e, 0x34, 0x5b, 0xc8, 0xbc, 0x18, 0x2c, 0x3d, 0x3c,
  0x85, 0xfc, 0x1e, 0xbd, 0x84, 0xc6, 0x01, 0x3f, 0x1b, 0x2b, 0x0e, 0xbf,
  0x44, 0x19, 0xd1, 0xbc, 0x72, 0x12, 0x9e, 0xbe, 0x4b, 0x8a, 0xcd, 0xbe,
  0xc8, 0xa4, 0x0e, 0xbd, 0x1e, 0x08, 0x10, 0xbe, 0x22, 0xdb, 0xe2, 0x3c,
  0x60, 0x57, 0x0f, 0x3e, 0xa1, 0xe1, 0x5f, 0xbe, 0x1c, 0xe2, 0xcb, 0x3d,
  0x7f, 0x9e, 0xf7, 0xbd, 0x17, 0x17, 0xb6, 0xbe, 0xfb, 0xed, 0xb5, 0x3d,
  0x08, 0x38, 0xb7, 0xbe, 0x28, 0xfb, 0xa6, 0xbd, 0x60, 0x0c, 0x01, 0x3f,
  0x9a, 0xb0, 0x67, 0x3d, 0x87, 0x7c, 0xf8, 0xbd, 0x76, 0x0e, 0x57, 0xbd,
  0x2a, 0x26, 0x83, 0x3e, 0x58, 0xcc, 0x22, 0xbe, 0x42, 0x32, 0x26, 0xbd,
  0x34, 0x4d, 0x6c, 0xbd, 0x85, 0x3f, 0xe3, 0xbd, 0x8d, 0x60, 0x04, 0x3e,
  0xbd, 0x85, 0xc9, 0xbe, 0xf3, 0xe0, 0x59, 0x3d, 0x50, 0x01, 0x93, 0xbe,
  0x64, 0x77, 0x70, 0x3c, 0xcb, 0xd9, 0x01, 0xbc, 0x4d, 0x3f, 0x38, 0xbe,
  0x87, 0x18, 0xd2, 0x3c, 0x52, 0x00, 0xec, 0x3d, 0x9c, 0x2f, 0x99, 0xbd,
  0x39, 0xbf, 0xff, 0x3e, 0x1c, 0x00, 0x51, 0xbe, 0x7e, 0x26, 0x7f, 0xbe,
  0xf8, 0xdb, 0xb0, 0xbd, 0xe3, 0x0a, 0x52, 0xbe, 0x55, 0xa6, 0x80, 0xbd,
  0x19, 0x96, 0x29, 0xbe, 0x11, 0xff, 0xf7, 0x3e, 0xeb, 0xb8, 0x15, 0xbc,
  0xb1, 0xa8, 0x02, 0xbe, 0xda, 0x33, 0x4f, 0xbd, 0x21, 0x10, 0x59, 0xbe,
  0x8b, 0x1d, 0x5f, 0x3d, 0xd5, 0x88, 0x8e, 0x3e, 0x0e, 0xde, 0x0f, 0xbe,
  0x7f, 0x5a, 0x1a, 0xbd, 0xd9, 0x9c, 0x39, 0xbd, 0xb1, 0x1f, 0x18, 0x3d,
  0x76, 0xb1, 0x81, 0xbe, 0xe7, 0x87, 0xb9, 0xbe, 0x63, 0x61, 0x89, 0x3d,
  0x35, 0xc3, 0x10, 0xbf, 0xb0, 0x8a, 0x5b, 0x3d, 0xa8, 0x0d, 0xbc, 0xbe,
  0x06, 0x78, 0x95, 0xbd, 0x27, 0xd9, 0x61, 0x3d, 0x3c, 0xa2, 0x9b, 0xbd,
  0x45, 0x2a, 0xa0, 0xba, 0x87, 0xb1, 0xb1, 0x3d, 0x81, 0x2f, 0xee, 0x3d,
  0xc2, 0xdb, 0x92, 0xbe, 0xcb, 0xbf, 0x26, 0xbe, 0x7b, 0xf5, 0xb9, 0xbe,
  0x77, 0xfa, 0x5e, 0x3e, 0x89, 0xa5, 0x5e, 0xbd, 0xcd, 0xfb, 0x5f, 0x3d,
  0x25, 0x24, 0x04, 0x3e, 0x22, 0x00, 0xfd, 0x3d, 0xf8, 0x78, 0xb7, 0xbe,
  0x93, 0x27, 0xca, 0xbd, 0x35, 0xb3, 0x24, 0xbf, 0xf6, 0x71, 0xfc, 0xbd,
  0x46, 0x70, 0xaf, 0x3e, 0xf6, 0x09, 0x37, 0x3d, 0x5c, 0x41, 0x3d, 0xbe,
  0x33, 0x5b, 0xe5, 0x3e, 0x64, 0x92, 0x54, 0xbe, 0x0e, 0xa2, 0x50, 0x3c,
  0xa0, 0x40, 0x18, 0xbe, 0x26, 0x77, 0x87, 0xbe, 0x24, 0x55, 0x12, 0xbe,
  0x88, 0xa5, 0xb6, 0xbd, 0x96, 0x83, 0x81, 0xbe, 0x8d, 0x34, 0x99, 0x3d,
  0xfe, 0x3c, 0xf1, 0xbc, 0xeb, 0x9f, 0x1b, 0xbe, 0xe9, 0x51, 0x90, 0x3d,
  0x2f, 0x0c, 0x75, 0xbd, 0xaf, 0x4d, 0x37, 0x3d, 0x99, 0x17, 0x48, 0xbd,
  0x1e, 0xb5, 0xe5, 0xbd, 0x1e, 0x02, 0xd8, 0x3d, 0xb9, 0x55, 0x42, 0x3e,
  0xe3, 0xe2, 0x08, 0x3d, 0x54, 0x1a, 0xd8, 0x3c, 0xf6, 0xf4, 0xb0, 0xbd,
  0xed, 0x5e, 0xb6, 0x3b, 0x43, 0x68, 0x80, 0xbd, 0xa5, 0x68, 0x55, 0xbe,
  0x9a, 0x5d, 0x0d, 0x3f, 0x20, 0x16, 0xb9, 0xbc, 0x0c, 0x8e, 0x9b, 0x3d,
  0x70, 0xb5, 0xab, 0x3e, 0x56, 0x5d, 0xab, 0xba, 0x91, 0x6d, 0xc0, 0xbd,
  0xf5, 0xcd, 0x13, 0xbd, 0xc7, 0x02, 0x06, 0xbe, 0x5a, 0x8d, 0xf8, 0xbd,
  0xbb, 0x55, 0x24, 0xbd, 0x09, 0x32, 0xc2, 0xbd, 0x3f, 0x99, 0xcf, 0x3d,
  0xf5, 0xc2, 0xaa, 0x3c, 0xf1, 0x49, 0x96, 0xbd, 0x60, 0x19, 0xb9, 0xbd,
  0x7a, 0x64, 0xb2, 0x3c, 0x2f, 0x53, 0x38, 0xbf, 0x8e, 0x90, 0xe7, 0x3d,
  0x8f, 0xf6, 0x14, 0xbe, 0xee, 0xa0, 0x34, 0xbf, 0x40, 0xf6, 0xbc, 0x3d,
  0xeb, 0x44, 0x71, 0xbc, 0xc6, 0xe9, 0x44, 0x3e, 0x44, 0x4f, 0x06, 0x3e,
  0xaa, 0x67, 0xe2, 0xbc, 0xab, 0x7b, 0x57, 0xbe, 0xe8, 0x8f, 0x89, 0x3e,
  0x25, 0xec, 0x99, 0xbe, 0xee, 0x5c, 0xcd, 0xbe, 0x21, 0xd7, 0x3b, 0xbd,
  0xf4, 0x9a, 0x17, 0xbe, 0x5c, 0x81, 0x36, 0xbd, 0xb9, 0xba, 0xd3, 0x3d,
  0xbf, 0x33, 0xfb, 0xbd, 0x5f, 0x1e, 0xa8, 0x3c, 0xcb, 0x51, 0xb2, 0xbe,
  0x47, 0xd4, 0x08, 0x3e, 0xb0, 0x6c, 0xa4, 0x3d, 0x33, 0x24, 0x37, 0xbe,
  0x1a, 0x71, 0x51, 0xbb, 0xeb, 0x0f, 0xa9, 0x3d, 0xba, 0x35, 0xc9, 0xbe,
  0x68, 0x48, 0x78, 0xbc, 0xae, 0xeb, 0xc0, 0xbe, 0xbd, 0xaa, 0xbc, 0x3d,
  0x7c, 0xf7, 0xfa, 0x3c, 0xe4, 0x74, 0x01, 0x3e, 0x6a, 0xef, 0x86, 0x39,
  0x8c, 0x45, 0xa7, 0x3d, 0xd6, 0x93, 0x06, 0xbf, 0xf5, 0x40, 0x0c, 0x3e,
  0xbc, 0x92, 0xa5, 0xbe, 0xe5, 0x1f, 0x22, 0xbe, 0x03, 0x17, 0xe0, 0xbe,
  0x60, 0xa5, 0xd1, 0xbe, 0xc3, 0x07, 0x32, 0xbe, 0x54, 0x71, 0x01, 0x3e,
  0x7d, 0x5e, 0x2b, 0xbf, 0x5e, 0x6d, 0xd3, 0x3d, 0x6d, 0x67, 0x51, 0x3e,
  0x49, 0xea, 0x2a, 0x3d, 0xfb, 0xed, 0x61, 0xbf, 0x30, 0x7c, 0x56, 0xbf,
  0x5d, 0x0e, 0x35, 0xbe, 0xd3, 0x08, 0x1a, 0x3e, 0x84, 0x13, 0x6f, 0xbd,
  0xc2, 0xfa, 0xb7, 0xbe, 0x64, 0x01, 0x7f, 0x3e, 0x34, 0x0b, 0x8c, 0x3d,
  0x60, 0x49, 0xba, 0xbe, 0x8d, 0x4c, 0x35, 0xbe, 0x4e, 0x1e, 0x34, 0xbd,
  0x0d, 0x3e, 0xaa, 0xbd, 0xb2, 0xa7, 0xfd, 0x3c, 0x6b, 0x85, 0x99, 0xbe,
  0x4b, 0xe2, 0x67, 0x3e, 0x80, 0xeb, 0xf0, 0x3d, 0xab, 0x6c, 0x91, 0x3e,
  0xfe, 0x68, 0x9e, 0x3e, 0x5a, 0xb2, 0xfc, 0xbc, 0x56, 0x86, 0x8a, 0xbd,
  0x0d, 0xe8, 0x7a, 0x3d, 0x7b, 0xbf, 0xb9, 0xbe, 0x89, 0xd0, 0xd4, 0x3e,
  0x84, 0xa5, 0xaf, 0xbe, 0xb0, 0x1c, 0xff, 0xbc, 0xcf, 0xd5, 0x25, 0x3b,
  0x0f, 0x1b, 0xa6, 0xbe, 0x4e, 0xa6, 0x61, 0x3d, 0x3e, 0x51, 0xc3, 0x3e,
  0xc0, 0x25, 0x84, 0xbd, 0x55, 0x10, 0xd7, 0x3d, 0xef, 0x3f, 0x8c, 0xbe,
  0xa0, 0xd0, 0x0b, 0x3e, 0x1a, 0x1c, 0xb0, 0xbd, 0xfa, 0x68, 0x14, 0xbe,
  0x1c, 0x10, 0xae, 0xbd, 0xe0, 0xa3, 0x89, 0x3d, 0xde, 0x45, 0x65, 0x3e,
  0x05, 0x05, 0x79, 0x3e, 0xb8, 0x3a, 0x62, 0xbe, 0x83, 0x97, 0xbb, 0x3c,
  0xcc, 0x4b, 0x2a, 0xbe, 0x5c, 0x12, 0x92, 0x3e, 0xed, 0x30, 0x1a, 0xbd,
  0xe7, 0x73, 0x0c, 0xbf, 0xf8, 0xc7, 0x30, 0xbe, 0xa5, 0xde, 0x2f, 0xbd,
  0xa9, 0x50, 0xc3, 0xbe, 0xef, 0x01, 0x82, 0xbe, 0x6e, 0x90, 0x8c, 0xbe,
  0x1e, 0x32, 0x39, 0xbe, 0x4e, 0x1e, 0x2b, 0xbd, 0x0f, 0x1a, 0x02, 0x3e,
  0x60, 0x3d, 0x99, 0xbd, 0x6c, 0x33, 0x37, 0x3d, 0x7e, 0x86, 0xdd, 0xbc,
  0x3e, 0xf3, 0xab, 0x3e, 0x31, 0xa2, 0xb0, 0x3e, 0x3b, 0x5c, 0xc3, 0xbc,
  0x79, 0xf7, 0xe1, 0x3d, 0x6c, 0x57, 0xea, 0xbb, 0x98, 0x31, 0x54, 0xbd,
  0xf1, 0x9b, 0x23, 0xbd, 0x04, 0x79, 0x39, 0xbc, 0xf0, 0xaa, 0x4a, 0xbb,
  0xd5, 0xb2, 0xe5, 0xbc, 0xfd, 0x60, 0x38, 0x3e, 0x2e, 0xfa, 0x3f, 0x3d,
  0xd5, 0x7b, 0x5d, 0xbc, 0xcb, 0xc7, 0x2d, 0x3c, 0xd9, 0xb1, 0xba, 0xbc,
  0xa7, 0x44, 0x6d, 0x3b, 0x97, 0x20, 0x11, 0x3c, 0x2a, 0x07, 0xfc, 0x3c,
  0x89, 0xa9, 0x4e, 0xbd, 0x70, 0x98, 0x3d, 0x3d, 0xf4, 0x78, 0x33, 0x3d,
  0xf4, 0x54, 0x29, 0xbd, 0xe7, 0x95, 0xc5, 0xbb, 0xf7, 0x2b, 0x13, 0x3d,
  0xd3, 0x50, 0x90, 0xbd, 0xa9, 0x9f, 0xdd, 0xbd, 0x14, 0x2c, 0xd0, 0xbd,
  0x88, 0x50, 0x0b, 0xbd, 0xaa, 0xff, 0x6e, 0xbf, 0x7b, 0xcc, 0xab, 0xbd,
  0xd8, 0xd6, 0x06, 0xbf, 0x4e, 0x42, 0xd2, 0x3e, 0x3b, 0xea, 0x3c, 0xbe,
  0xf0, 0xcf, 0x0f, 0xbf, 0x7f, 0xde, 0x59, 0xbe, 0xcb, 0x7a, 0xee, 0x3d,
  0x7d, 0x61, 0x9c, 0xbf, 0x9b, 0xb0, 0xab, 0x3b, 0x79, 0x11, 0xde, 0xbe,
  0x21, 0xa6, 0x59, 0x3c, 0x4b, 0x77, 0xa4, 0xbe, 0x0c, 0x7c, 0xd5, 0xbe,
  0x4e, 0xc3, 0x7c, 0x3d, 0x77, 0xaa, 0x7a, 0x3e, 0xb1, 0xfe, 0xb5, 0xbf,
  0xf2, 0x2c, 0x39, 0x3e, 0xb5, 0xe3, 0x95, 0x3e, 0x11, 0x2f, 0x8e, 0xbd,
  0xc5, 0x3d, 0x7b, 0xbf, 0x66, 0x58, 0x30, 0xbf, 0x96, 0xb3, 0xaa, 0x39,
  0x0a, 0x15, 0x01, 0x3e, 0x17, 0x01, 0x16, 0xbf, 0x92, 0x62, 0x07, 0xbe,
  0x77, 0x25, 0xb7, 0x3e, 0xa1, 0x5e, 0x66, 0x3c, 0x2f, 0x66, 0x9b, 0xbe,
  0xda, 0xa5, 0x43, 0xbe, 0x10, 0x98, 0xcd, 0x3d, 0x12, 0xc6, 0x1e, 0xbf,
  0x77, 0x50, 0x9d, 0xbc, 0x1b, 0xc4, 0x7d, 0xbd, 0x5d, 0x78, 0x83, 0xbe,
  0x29, 0xaf, 0x64, 0xbe, 0x94, 0x82, 0xaa, 0xbd, 0xa5, 0xee, 0x1d, 0xbe,
  0x4b, 0x01, 0xf7, 0xbd, 0x63, 0xf4, 0x20, 0xbf, 0xc6, 0xbc, 0x71, 0x3e,
  0xd9, 0x6a, 0x3b, 0xbe, 0x00, 0xdd, 0x7b, 0xbb, 0x78, 0xaf, 0xc9, 0x3c,
  0x37, 0x06, 0x18, 0x3e, 0xdf, 0x4b, 0x54, 0xbe, 0x4e, 0x31, 0x89, 0x3e,
  0x7c, 0x4c, 0xc2, 0xbe, 0xcd, 0x6b, 0x8f, 0xbe, 0xd4, 0x97, 0x51, 0xbd,
  0x85, 0x87, 0xc8, 0x3e, 0x49, 0xf6, 0xc7, 0x3d, 0xd5, 0x70, 0x84, 0xbe,
  0xb7, 0x88, 0xf8, 0xbe, 0x57, 0x52, 0x03, 0xbf, 0xbb, 0x97, 0xe1, 0x3b,
  0x82, 0x3f, 0xe3, 0xbe, 0xf7, 0x26, 0xaa, 0xbe, 0xb0, 0xaa, 0x78, 0xbd,
  0x9d, 0x4e, 0xa9, 0xbe, 0xc0, 0xdd, 0x89, 0xbe, 0x6f, 0xa8, 0x36, 0x3e,
  0xb7, 0xfe, 0x0b, 0xbe, 0x29, 0x19, 0x81, 0x3e, 0xa6, 0x6c, 0x48, 0x3e,
  0x46, 0x17, 0x38, 0x3d, 0xb9, 0xb5, 0xc7, 0x3e, 0x0d, 0xa1, 0x09, 0xbe,
  0xba, 0xa1, 0x4d, 0xbd, 0x90, 0xbd, 0x0e, 0xbd, 0x27, 0x1b, 0xf8, 0x3b,
  0xb4, 0x3f, 0xcd, 0xba, 0x08, 0xc2, 0xd5, 0x3c, 0x5d, 0x20, 0x94, 0x3d,
  0xc8, 0xff, 0xa5, 0xbe, 0x5c, 0x9c, 0xc0, 0xbe, 0xbc, 0xe8, 0xa2, 0x3c,
  0xff, 0x11, 0xf9, 0xbe, 0xce, 0x51, 0xc3, 0x3c, 0xaf, 0x9a, 0xca, 0x3d,
  0x69, 0x39, 0xc4, 0xbd, 0x2b, 0x98, 0xb7, 0xbd, 0x94, 0xd6, 0xdb, 0x3e,
  0xe3, 0x3e, 0x1a, 0xbf, 0x8f, 0xc0, 0x3b, 0xbe, 0x0a, 0x87, 0x03, 0xbf,
  0x69, 0xeb, 0x28, 0xbe, 0xea, 0xe0, 0xbb, 0x3d, 0x37, 0xd5, 0x8c, 0xbd,
  0xa5, 0xb7, 0x50, 0xbc, 0xff, 0x94, 0x0c, 0xbe, 0xb9, 0x40, 0x4f, 0xbe,
  0x70, 0x5d, 0x0b, 0x3e, 0xc5, 0xbc, 0xf6, 0xbe, 0x2c, 0x60, 0x5a, 0xbe,
  0xc6, 0xde, 0xff, 0xff, 0x10, 0x00, 0x00, 0x00, 0x08, 0x00, 0x00, 0x00,
  0x1c, 0x00, 0x00, 0x00, 0x38, 0x00, 0x00, 0x00, 0x04, 0x00, 0x00, 0x00,
  0x10, 0x00, 0x00, 0x00, 0x04, 0x00, 0x00, 0x00, 0x01, 0x00, 0x00, 0x00,
  0x08, 0x00, 0x00, 0x00, 0x1a, 0x00, 0x00, 0x00, 0x73, 0x65, 0x71, 0x75,
  0x65, 0x6e, 0x74, 0x69, 0x61, 0x6c, 0x2f, 0x63, 0x6f, 0x6e, 0x76, 0x32,
  0x64, 0x5f, 0x31, 0x2f, 0x43, 0x6f, 0x6e, 0x76, 0x32, 0x44, 0x00, 0x00,
  0xc0, 0xde, 0xff, 0xff, 0xb6, 0xdf, 0xff, 0xff, 0x04, 0x00, 0x00, 0x00,
  0x80, 0x01, 0x00, 0x00, 0x18, 0xed, 0x46, 0xbd, 0x71, 0x47, 0xa3, 0x3e,
  0x82, 0xa6, 0x14, 0x3d, 0xc1, 0x5a, 0x28, 0xbe, 0x85, 0x96, 0xe6, 0x3d,
  0xd3, 0x53, 0x22, 0xbe, 0xed, 0xc6, 0xc1, 0x3d, 0x59, 0x5f, 0xec, 0xbe,
  0x20, 0x8f, 0xee, 0x3d, 0xf9, 0x9d, 0xc8, 0x3c, 0xc4, 0xad, 0x2d, 0xbd,
  0x9a, 0x9e, 0x6f, 0xbc, 0xf3, 0x7c, 0x54, 0x3e, 0x6c, 0xfb, 0x1d, 0x3d,
  0xcd, 0xe3, 0x3f, 0xbe, 0x51, 0x63, 0xe8, 0xbe, 0xf2, 0x27, 0x6f, 0xbb,
  0xeb, 0x07, 0xaa, 0xbe, 0xf7, 0xee, 0x4e, 0x3e, 0x78, 0x11, 0x0a, 0xbe,
  0x8d, 0x58, 0x28, 0xbe, 0x6b, 0x71, 0x48, 0x3e, 0xa7, 0x13, 0x24, 0xbe,
  0x7f, 0x5c, 0x75, 0x3e, 0x90, 0x0e, 0x74, 0xbe, 0x2b, 0x2d, 0x3c, 0xbe,
  0xdc, 0x97, 0x82, 0xbd, 0xd9, 0x5a, 0xac, 0x3d, 0xae, 0xa3, 0xd5, 0x3c,
  0x3b, 0x44, 0x1b, 0xbc, 0x25, 0xd7, 0xa7, 0x3e, 0x90, 0xad, 0x05, 0x3e,
  0x35, 0xdb, 0xf7, 0xbd, 0xa3, 0x8d, 0x39, 0x3d, 0x64, 0xe3, 0x9b, 0xbc,
  0x28, 0xf2, 0x1f, 0xbe, 0x23, 0x03, 0x88, 0x3e, 0x49, 0x6f, 0xad, 0xbd,
  0x54, 0xce, 0xce, 0x3e, 0x9a, 0xda, 0x07, 0xbc, 0x0e, 0xc9, 0xde, 0xbd,
  0x5c, 0x49, 0xba, 0x3c, 0x34, 0x73, 0x8e, 0xbe, 0xd1, 0xc4, 0x84, 0x3d,
  0xc4, 0x69, 0xc6, 0xbe, 0x1b, 0x95, 0x97, 0xbe, 0x05, 0x8b, 0x26, 0xbc,
  0x3b, 0x62, 0x79, 0xbe, 0xd2, 0xd4, 0x6a, 0xbe, 0xa5, 0x52, 0x8f, 0xbd,
  0xac, 0xdc, 0x1a, 0x3e, 0x26, 0x14, 0x82, 0xbe, 0x79, 0xe5, 0x0c, 0xbe,
  0x7f, 0x83, 0xc8, 0x3d, 0x7f, 0x81, 0x5e, 0x3e, 0x33, 0xba, 0x36, 0xbd,
  0xc6, 0xb9, 0x43, 0xbe, 0x1c, 0x71, 0xe4, 0x3e, 0xc6, 0xd7, 0xa5, 0xbd,
  0xc6, 0xe3, 0x5e, 0xbe, 0x4e, 0x77, 0x48, 0x3e, 0x34, 0xf3, 0x05, 0xbe,
  0x90, 0xb8, 0x08, 0xbe, 0x3c, 0xaf, 0x45, 0x3d, 0x01, 0x81, 0x18, 0xbe,
  0x21, 0xe8, 0xaa, 0xbe, 0xe1, 0x36, 0xbd, 0xbe, 0x09, 0xb8, 0x56, 0x3e,
  0x19, 0x6d, 0x4e, 0xbe, 0xa9, 0x78, 0xc4, 0xbe, 0x7d, 0xf1, 0xad, 0x3d,
  0x9f, 0x66, 0x7b, 0xbd, 0x99, 0x4f, 0x09, 0xbe, 0x9b, 0x33, 0x39, 0xbe,
  0x43, 0xad, 0x1b, 0xbe, 0xf6, 0xf0, 0xba, 0x3e, 0x5d, 0x98, 0x23, 0x3d,
  0xcc, 0x5b, 0x06, 0xbe, 0x6c, 0x5c, 0xe9, 0x3d, 0xca, 0x37, 0x86, 0xbd,
  0x94, 0xf1, 0x28, 0xbd, 0xe1, 0xb4, 0x8d, 0x3e, 0x3f, 0x1e, 0x44, 0xbe,
  0x6f, 0x87, 0x77, 0xbe, 0x9a, 0x20, 0xa2, 0xbd, 0x36, 0x71, 0x28, 0xbe,
  0x63, 0x83, 0x95, 0xbc, 0x0e, 0x91, 0x58, 0x3e, 0x6c, 0xa8, 0xa7, 0xbd,
  0xfc, 0xd9, 0x21, 0x3e, 0x0c, 0xa3, 0xb6, 0x3d, 0xbb, 0xab, 0x63, 0xbe,
  0x89, 0x39, 0x7b, 0x3d, 0xfe, 0x9c, 0xd5, 0x3d, 0x46, 0x92, 0x62, 0x3d,
  0x95, 0x30, 0x72, 0xbe, 0x9e, 0xe0, 0xff, 0xff, 0x10, 0x00, 0x00, 0x00,
  0x07, 0x00, 0x00, 0x00, 0x1c, 0x00, 0x00, 0x00, 0x38, 0x00, 0x00, 0x00,
  0x04, 0x00, 0x00, 0x00, 0x08, 0x00, 0x00, 0x00, 0x04, 0x00, 0x00, 0x00,
  0x03, 0x00, 0x00, 0x00, 0x01, 0x00, 0x00, 0x00, 0x18, 0x00, 0x00, 0x00,
  0x73, 0x65, 0x71, 0x75, 0x65, 0x6e, 0x74, 0x69, 0x61, 0x6c, 0x2f, 0x63,
  0x6f, 0x6e, 0x76, 0x32, 0x64, 0x2f, 0x43, 0x6f, 0x6e, 0x76, 0x32, 0x44,
  0x00, 0x00, 0x00, 0x00, 0x98, 0xe0, 0xff, 0xff, 0x8e, 0xe1, 0xff, 0xff,
  0x04, 0x00, 0x00, 0x00, 0x00, 0x01, 0x00, 0x00, 0xb9, 0xa7, 0xa5, 0x3e,
  0xf5, 0xd0, 0xa7, 0x3e, 0x46, 0x5e, 0x8d, 0xbd, 0x9a, 0x5e, 0x67, 0xbd,
  0x95, 0x76, 0x17, 0xbe, 0x49, 0x39, 0x4b, 0x3e, 0xb2, 0xc7, 0xae, 0x3d,
  0xd5, 0x09, 0x68, 0x3e, 0xaa, 0xae, 0xaf, 0xbd, 0x76, 0x1c, 0x3d, 0x3d,
  0x3f, 0x8d, 0x7e, 0x3e, 0x80, 0x62, 0x04, 0xbd, 0xd0, 0xc1, 0xde, 0x3d,
  0x34, 0xbc, 0x16, 0xbe, 0xde, 0xe4, 0x29, 0x3e, 0x65, 0xf3, 0xc4, 0xbe,
  0x48, 0x2b, 0x65, 0x3e, 0x2c, 0xd6, 0x9c, 0xbe, 0x7e, 0x96, 0x2e, 0xbe,
  0xb3, 0x54, 0x83, 0xbd, 0x7d, 0x08, 0x48, 0xbe, 0x58, 0x7e, 0x1c, 0x3e,
  0x22, 0x68, 0x39, 0xbd, 0x16, 0xf8, 0x8c, 0x3e, 0x74, 0x7c, 0x51, 0x3d,
  0xef, 0xe1, 0x78, 0x3d, 0x01, 0x81, 0x82, 0x3e, 0xba, 0xa0, 0x2c, 0xbe,
  0xc7, 0x9b, 0xaf, 0x3d, 0xeb, 0xb4, 0x11, 0xbe, 0x90, 0x07, 0x09, 0x3e,
  0xc1, 0x44, 0xd2, 0x3e, 0x52, 0xa1, 0xa3, 0x3e, 0xb0, 0x1c, 0x23, 0xbf,
  0x30, 0x24, 0xfc, 0xbd, 0x0c, 0x34, 0xe6, 0xbc, 0xfa, 0x24, 0xce, 0xbe,
  0xbc, 0x79, 0x7f, 0x3e, 0xb2, 0xee, 0xb0, 0x3d, 0x72, 0xb2, 0x49, 0x3e,
  0x6b, 0x4b, 0x8f, 0xbb, 0x4e, 0x32, 0xe2, 0x3d, 0x98, 0x5a, 0xa6, 0x3e,
  0x5e, 0x64, 0xcc, 0xbd, 0xb6, 0xa2, 0x46, 0x3e, 0x9d, 0xc3, 0xd4, 0xbd,
  0xdb, 0x4d, 0x8b, 0x3e, 0x8c, 0x69, 0x71, 0x3d, 0xdb, 0xa0, 0x77, 0x3e,
  0xce, 0x8e, 0x41, 0xbe, 0x50, 0x43, 0xc6, 0xbd, 0xb9, 0xc1, 0x03, 0x3d,
  0xde, 0x17, 0x96, 0xbe, 0x65, 0xf2, 0x99, 0x3e, 0x23, 0xa1, 0xa8, 0xbb,
  0x91, 0xc4, 0xb2, 0x3d, 0x62, 0x7f, 0xc9, 0xbe, 0x95, 0x0e, 0x6f, 0x3c,
  0xcb, 0xbe, 0x80, 0x3e, 0x93, 0x08, 0x8f, 0xbd, 0xf5, 0x72, 0xa0, 0x3d,
  0xd6, 0xe9, 0x59, 0xbd, 0xba, 0x08, 0x89, 0x3e, 0x9f, 0x97, 0x33, 0xbe,
  0xf6, 0xe1, 0xff, 0xff, 0x10, 0x00, 0x00, 0x00, 0x06, 0x00, 0x00, 0x00,
  0x14, 0x00, 0x00, 0x00, 0x30, 0x00, 0x00, 0x00, 0x02, 0x00, 0x00, 0x00,
  0x04, 0x00, 0x00, 0x00, 0x10, 0x00, 0x00, 0x00, 0x19, 0x00, 0x00, 0x00,
  0x73, 0x65, 0x71, 0x75, 0x65, 0x6e, 0x74, 0x69, 0x61, 0x6c, 0x2f, 0x64,
  0x65, 0x6e, 0x73, 0x65, 0x5f, 0x31, 0x2f, 0x4d, 0x61, 0x74, 0x4d, 0x75,
  0x6c, 0x00, 0x00, 0x00, 0xe8, 0xe1, 0xff, 0xff, 0xde, 0xe2, 0xff, 0xff,
  0x04, 0x00, 0x00, 0x00, 0x00, 0x1c, 0x00, 0x00, 0x2d, 0x8d, 0x9f, 0x3d,
  0xd3, 0xbb, 0xa3, 0xbd, 0x32, 0xc9, 0xb4, 0xbe, 0x3a, 0x57, 0xe1, 0xbd,
  0x71, 0x1b, 0x1c, 0xbe, 0xda, 0x3f, 0x46, 0xbc, 0xec, 0x7f, 0xd2, 0x3e,
  0xdc, 0x5a, 0x6b, 0xbe, 0xd1, 0x40, 0x34, 0x3e, 0x03, 0x53, 0x86, 0x3d,
  0xe1, 0xbc, 0x2c, 0x3e, 0x75, 0xbc, 0x9a, 0x3e, 0x79, 0x30, 0xb5, 0xbd,
  0x9b, 0xc4, 0x49, 0x3e, 0xae, 0x1d, 0x94, 0x3e, 0x8b, 0x57, 0x13, 0x3e,
  0xcb, 0x71, 0x1c, 0x3d, 0xad, 0x3b, 0xd8, 0x3d, 0x71, 0x53, 0x4a, 0x3e,
  0x2a, 0x1f, 0x6e, 0xbd, 0x06, 0xe8, 0x4c, 0x3e, 0x1d, 0xfc, 0x86, 0xbd,
  0x06, 0xfb, 0x71, 0x3d, 0x39, 0x50, 0x2b, 0x3d, 0x31, 0xef, 0x0c, 0xbe,
  0x8c, 0x83, 0xcf, 0xbd, 0x2d, 0x36, 0x2a, 0x3e, 0x3a, 0xc6, 0x6f, 0xbd,
  0x81, 0xe1, 0xc7, 0xbd, 0x43, 0x7c, 0x85, 0xbc, 0xfc, 0xb9, 0xee, 0x3e,
  0xd3, 0xae, 0x24, 0x3c, 0x0d, 0xd5, 0x3a, 0xbd, 0x8e, 0xc0, 0x91, 0x3b,
  0x37, 0xa5, 0xf3, 0x3c, 0xc7, 0x9f, 0xb0, 0x3d, 0xa0, 0x5e, 0xd3, 0x3d,
  0x27, 0x1a, 0xb6, 0x3b, 0x46, 0x85, 0xbb, 0xbd, 0xe1, 0xb9, 0xa7, 0xbc,
  0x14, 0x81, 0xbe, 0x3c, 0x73, 0xc1, 0x10, 0x3e, 0xf6, 0x51, 0x7e, 0x3e,
  0x75, 0x61, 0x7c, 0xbe, 0xfb, 0xa1, 0x14, 0x3d, 0x42, 0xe8, 0x19, 0xbe,
  0x97, 0x9f, 0x8f, 0x3e, 0xf0, 0xe1, 0xe7, 0x3d, 0x63, 0xa1, 0x4b, 0x3d,
  0x2d, 0x82, 0x46, 0xbd, 0xfd, 0x71, 0x21, 0x3d, 0x67, 0x4f, 0xd9, 0xbb,
  0x8f, 0x86, 0x2e, 0x3e, 0x6c, 0xa9, 0x8f, 0x3d, 0x19, 0xba, 0x11, 0xbe,
  0x5f, 0x2b, 0x09, 0x3e, 0xef, 0xaf, 0x65, 0xbc, 0x9c, 0x34, 0x15, 0x3d,
  0x88, 0x4a, 0x85, 0x3d, 0x22, 0xe4, 0xc3, 0xbd, 0x4a, 0x8e, 0x4b, 0x3c,
  0x04, 0x6f, 0xdf, 0xbe, 0xc1, 0x7c, 0xff, 0x3e, 0xc1, 0xbe, 0x4a, 0x3e,
  0x30, 0xf1, 0x92, 0xbd, 0x01, 0x91, 0x10, 0xbe, 0x82, 0x25, 0x7c, 0x3d,
  0xca, 0xd1, 0x0a, 0x3e, 0xfc, 0x1b, 0x88, 0x3d, 0x04, 0x00, 0xc1, 0xbd,
  0x38, 0xd6, 0xa2, 0xbe, 0xf4, 0xa3, 0x4d, 0xbd, 0xba, 0x5e, 0x57, 0xbe,
  0xe3, 0xa0, 0x1e, 0x3d, 0xe4, 0x48, 0xcd, 0xbc, 0xd7, 0xfa, 0x38, 0xbe,
  0x28, 0x49, 0xc4, 0xbc, 0x88, 0x75, 0xf8, 0xbd, 0xe8, 0x06, 0x19, 0x3d,
  0xd3, 0xc8, 0xe4, 0xbc, 0xf8, 0x28, 0xb1, 0xbd, 0x28, 0x68, 0x81, 0xbe,
  0x7e, 0xa2, 0x69, 0x3e, 0xa9, 0x49, 0x4a, 0x3d, 0x8f, 0xc3, 0xb0, 0xbd,
  0x29, 0x79, 0x7f, 0xbe, 0xaa, 0x0b, 0xcb, 0xbe, 0x1f, 0x42, 0x07, 0x3d,
  0x5f, 0x12, 0x8f, 0xbe, 0xad, 0x3f, 0xa4, 0xbb, 0xd2, 0x09, 0x57, 0xbe,
  0xaf, 0x5d, 0x5c, 0xbe, 0x7c, 0xd6, 0x79, 0x3d, 0x94, 0x62, 0x36, 0xbe,
  0x89, 0x04, 0x5b, 0x3e, 0xbe, 0xda, 0xf0, 0xbd, 0xeb, 0x14, 0x49, 0xbd,
  0xdf, 0xa8, 0x59, 0xbe, 0x3d, 0x69, 0x4e, 0x3d, 0x6f, 0xa2, 0x32, 0x3d,
  0x89, 0xd1, 0xb1, 0x3d, 0x67, 0x30, 0x9b, 0xbe, 0x7f, 0x70, 0x48, 0xbe,
  0xdf, 0x11, 0x9d, 0x3d, 0x32, 0x58, 0xf6, 0xbd, 0xf4, 0x14, 0x82, 0xbd,
  0x25, 0xd3, 0xb7, 0x3c, 0x45, 0x4a, 0x7b, 0xba, 0x43, 0x3e, 0xb5, 0xbb,
  0x8d, 0x1c, 0x80, 0xbd, 0x16, 0xdb, 0x34, 0x3d, 0x1c, 0x17, 0x57, 0xbe,
  0x0b, 0x81, 0x84, 0xbc, 0xdf, 0x4a, 0xec, 0xbd, 0x57, 0x30, 0x09, 0xbe,
  0x0e, 0x64, 0x14, 0x3d, 0xd5, 0xfd, 0x41, 0x3d, 0x72, 0xbc, 0x02, 0xbf,
  0x2e, 0x15, 0x25, 0xbe, 0xee, 0xbc, 0x8a, 0xbe, 0x04, 0xee, 0x35, 0xbe,
  0x39, 0xbf, 0x66, 0xbb, 0x03, 0xf2, 0x76, 0xbe, 0x67, 0xd9, 0xe7, 0xbb,
  0x72, 0xb7, 0xc7, 0xbe, 0x33, 0x66, 0xa5, 0xbd, 0x47, 0x15, 0x36, 0x3e,
  0xc5, 0x67, 0xdb, 0xbd, 0xa8, 0x66, 0x46, 0xbe, 0x9d, 0x74, 0xc0, 0xbe,
  0x99, 0x0c, 0x14, 0x3e, 0xd5, 0x3e, 0xbd, 0xbe, 0x86, 0x91, 0x8a, 0x3e,
  0x5c, 0x55, 0x97, 0xbe, 0x07, 0x22, 0x14, 0x3d, 0x1c, 0xa9, 0xb7, 0xbd,
  0xff, 0x4a, 0x80, 0xbe, 0x73, 0x59, 0x3d, 0xbe, 0x65, 0x1e, 0xa3, 0xbe,
  0xd5, 0x13, 0x1a, 0xbe, 0xac, 0x38, 0x54, 0xbe, 0xe1, 0x5a, 0xf1, 0x3c,
  0x43, 0x55, 0x2b, 0x3f, 0xe1, 0xec, 0x21, 0x3d, 0xc6, 0xaf, 0xb7, 0xbd,
  0x0a, 0x58, 0x11, 0x3e, 0x3e, 0xfc, 0x04, 0x3e, 0x40, 0x86, 0x09, 0xbe,
  0xa0, 0x1f, 0x99, 0x3e, 0xfb, 0x23, 0x2f, 0xbe, 0xd6, 0xd1, 0xa9, 0x3d,
  0x53, 0xe8, 0x69, 0xbe, 0xea, 0x21, 0x90, 0xbe, 0xe0, 0xbc, 0x0c, 0xbe,
  0x7a, 0x97, 0x8a, 0xbe, 0xf7, 0x5e, 0x34, 0x3d, 0x20, 0xef, 0x62, 0xbe,
  0xa8, 0xb5, 0x2c, 0xbe, 0xe8, 0xba, 0x14, 0x3f, 0x60, 0xcf, 0x1b, 0x3d,
  0xd2, 0xc0, 0x89, 0x3d, 0xc0, 0x61, 0xc0, 0x3d, 0x9f, 0x54, 0xb1, 0x3d,
  0xb5, 0x71, 0x32, 0xbb, 0x3f, 0x34, 0x36, 0x3e, 0xd5, 0xee, 0x76, 0xbe,
  0x29, 0xa5, 0xba, 0xbd, 0x9c, 0xaf, 0x46, 0xbe, 0xb7, 0x0e, 0x9d, 0xbe,
  0x73, 0x40, 0xf6, 0xbd, 0xb8, 0xeb, 0x97, 0xbe, 0x5d, 0x10, 0xc1, 0x3d,
  0x16, 0x0f, 0xf4, 0xbe, 0x5f, 0x94, 0x33, 0xbe, 0xae, 0x2d, 0x33, 0x3f,
  0xe0, 0x3f, 0x5a, 0x3d, 0x35, 0x08, 0x3e, 0xb9, 0x70, 0xb6, 0x68, 0xbd,
  0xe5, 0x79, 0xea, 0x3d, 0xca, 0x7a, 0xdb, 0xbe, 0xe4, 0x46, 0xfe, 0x3e,
  0xb5, 0x8b, 0x2c, 0xbe, 0x0b, 0xaa, 0x04, 0x3d, 0x1d, 0x83, 0x34, 0xbe,
  0x01, 0xdc, 0x84, 0xbe, 0xac, 0xab, 0x7a, 0xbe, 0x5a, 0x4f, 0x82, 0xbd,
  0x9c, 0xc5, 0xe5, 0xbd, 0xe6, 0x9b, 0x9a, 0xbe, 0xf8, 0xb9, 0xfc, 0xbd,
  0xef, 0x86, 0x51, 0x3f, 0xbd, 0xac, 0x8e, 0xbe, 0x18, 0x65, 0xe6, 0xbd,
  0xc0, 0x74, 0x1f, 0xbe, 0x59, 0x29, 0x7b, 0x3e, 0x00, 0x8d, 0xa5, 0xbe,
  0xae, 0xbe, 0x9a, 0x3e, 0x22, 0x55, 0x4a, 0xbe, 0x9c, 0x7a, 0xaa, 0xbd,
  0x33, 0x3a, 0xb6, 0xbe, 0x11, 0xa6, 0xce, 0x3d, 0x70, 0x2a, 0x85, 0xbe,
  0x20, 0x28, 0x9d, 0xbe, 0x69, 0x43, 0x9a, 0xbe, 0x19, 0xb5, 0xa6, 0xbe,
  0x51, 0x7e, 0xc4, 0xbc, 0x3c, 0xbf, 0x17, 0x3f, 0x5c, 0x79, 0xb2, 0xbe,
  0xad, 0x87, 0x32, 0xbd, 0x77, 0x1f, 0xb0, 0x3d, 0x51, 0x5d, 0x15, 0x3f,
  0x3e, 0x7c, 0x43, 0x3e, 0xdd, 0x37, 0x94, 0xbd, 0x56, 0x7f, 0x78, 0x3d,
  0xbb, 0x3c, 0x68, 0x3e, 0xcf, 0xf6, 0xa7, 0xbc, 0x52, 0xb9, 0xa9, 0xbd,
  0xab, 0x74, 0x6f, 0x3d, 0x9c, 0xa1, 0xb9, 0xbd, 0x96, 0xc8, 0xa5, 0xbd,
  0x94, 0xd3, 0x57, 0xbe, 0x9f, 0x47, 0xba, 0x3c, 0x77, 0xa6, 0x5b, 0xbe,
  0x00, 0xe0, 0x05, 0xbe, 0xe0, 0x99, 0x58, 0x3e, 0xf0, 0x22, 0x92, 0xbd,
  0xcf, 0x6c, 0x33, 0x3e, 0x9c, 0x3a, 0x4f, 0xbd, 0x4d, 0xc4, 0x92, 0xbc,
  0x00, 0x74, 0xb0, 0x3d, 0xfd, 0x7c, 0x37, 0x3e, 0x82, 0x8c, 0x82, 0xbe,
  0x6d, 0x5c, 0x59, 0x3d, 0xb4, 0xef, 0xa2, 0x3d, 0xa1, 0x20, 0x8b, 0x3e,
  0xd5, 0x08, 0xba, 0xbe, 0xb3, 0x06, 0x24, 0xbf, 0x80, 0xb5, 0x00, 0x3f,
  0x1f, 0x3b, 0x96, 0x3e, 0xb2, 0xbd, 0x75, 0xbb, 0x4a, 0xb4, 0x2a, 0xbd,
  0xbe, 0xa1, 0x9e, 0xbd, 0xa4, 0x7f, 0xd2, 0x3d, 0xb5, 0x5f, 0x6b, 0xbd,
  0xa0, 0xeb, 0x3d, 0x3d, 0xb6, 0x3d, 0x26, 0xbe, 0x76, 0x67, 0x02, 0xbe,
  0x8d, 0x0b, 0x80, 0x3e, 0x5a, 0x1f, 0x52, 0xbd, 0x4d, 0xce, 0xb7, 0xbe,
  0x88, 0x5d, 0x75, 0x3e, 0x91, 0x1d, 0xb8, 0xbc, 0x8a, 0x4c, 0x3d, 0xbe,
  0xbc, 0xd7, 0x2a, 0x3e, 0xba, 0xec, 0x45, 0x3f, 0xda, 0x0e, 0x1b, 0xbe,
  0x86, 0xaa, 0x4f, 0xbe, 0xf9, 0x70, 0xf2, 0xbb, 0x58, 0x77, 0x5a, 0x3e,
  0x3f, 0xe2, 0xcd, 0x3d, 0xf9, 0xba, 0x93, 0xbe, 0x7c, 0x97, 0x9a, 0x3b,
  0xe8, 0x31, 0x00, 0x3e, 0x3a, 0x6d, 0x8c, 0xbd, 0xe1, 0x69, 0x3e, 0xbd,
  0x2a, 0xbb, 0xcd, 0x3c, 0x52, 0x2b, 0x01, 0x3e, 0x57, 0x41, 0x12, 0xbe,
  0x6b, 0x92, 0x72, 0x3e, 0x2e, 0xc5, 0x2c, 0xbe, 0x18, 0xf7, 0x25, 0x3f,
  0x79, 0xa6, 0x26, 0x3d, 0x7d, 0xc0, 0x08, 0xbe, 0xae, 0x46, 0xac, 0x3d,
  0xc1, 0x7f, 0xe9, 0x3e, 0x39, 0x69, 0xf3, 0xbd, 0x61, 0xeb, 0x83, 0xbd,
  0xcd, 0x06, 0xee, 0xbd, 0x37, 0x40, 0x12, 0xbd, 0x57, 0x61, 0xb9, 0xbc,
  0x81, 0xae, 0x58, 0xbe, 0x29, 0xa7, 0x29, 0x3d, 0x0d, 0x5d, 0x83, 0x3e,
  0x34, 0x00, 0x96, 0xbe, 0x13, 0x6f, 0xc4, 0xbd, 0x38, 0x26, 0x02, 0xbd,
  0xe9, 0xec, 0xe6, 0x3e, 0x90, 0xc4, 0x1e, 0x3e, 0x4d, 0x60, 0xce, 0x3d,
  0x17, 0x31, 0x82, 0xbe, 0xcf, 0x8e, 0x10, 0x3f, 0x88, 0x55, 0x90, 0xbd,
  0xbe, 0x43, 0x5f, 0xbe, 0x3b, 0xdd, 0x5c, 0x3d, 0xb8, 0xc3, 0xb2, 0x3d,
  0x5a, 0x6a, 0x09, 0x3d, 0xe7, 0xd8, 0x09, 0xbe, 0xa1, 0x14, 0x4d, 0xbd,
  0x90, 0x32, 0x74, 0x3e, 0x92, 0xd8, 0x96, 0xbe, 0x29, 0x5c, 0x85, 0xbe,
  0xaf, 0xed, 0x7c, 0x3e, 0x14, 0xcf, 0x07, 0x3f, 0x65, 0x09, 0xcc, 0xbd,
  0x3b, 0xf7, 0x1b, 0x3d, 0x66, 0xb4, 0x87, 0xbe, 0xcc, 0x6f, 0xb3, 0x3e,
  0xe0, 0x2f, 0x0d, 0xbe, 0xb2, 0x02, 0x06, 0xbe, 0x19, 0xea, 0xe7, 0xbc,
  0x2a, 0xc3, 0x65, 0x3d, 0xa1, 0xec, 0x46, 0x3c, 0x3e, 0xc7, 0xa6, 0xbd,
  0xae, 0xc6, 0x41, 0xbe, 0x41, 0x02, 0x49, 0x3e, 0x3a, 0x07, 0x24, 0xbe,
  0x5f, 0x7a, 0x59, 0xbe, 0x0d, 0x02, 0x74, 0x3e, 0xcb, 0xa1, 0xdf, 0x3e,
  0xdd, 0x31, 0xe7, 0xbe, 0x11, 0xaf, 0x8b, 0x3d, 0xa3, 0xe5, 0xe9, 0xbc,
  0xa6, 0x07, 0xaa, 0x3c, 0x67, 0x9c, 0x09, 0xbb, 0xd0, 0x28, 0x14, 0xbe,
  0x71, 0xea, 0x9d, 0xbc, 0xab, 0x80, 0x96, 0x3d, 0xf1, 0x92, 0xbe, 0x3d,
  0x5e, 0x34, 0x95, 0xbc, 0xfc, 0x40, 0x08, 0x3e, 0x0e, 0x6a, 0x5f, 0x3e,
  0x47, 0xca, 0xbc, 0xbd, 0xdd, 0x18, 0x1e, 0x3e, 0x8b, 0xf6, 0x68, 0x3d,
  0x95, 0x78, 0x8a, 0xbd, 0x19, 0x7f, 0x9e, 0xbd, 0xad, 0x17, 0x6d, 0x3d,
  0x21, 0x19, 0x0e, 0xbf, 0xf0, 0xc6, 0x37, 0x3f, 0x39, 0x96, 0x94, 0x3e,
  0x36, 0x59, 0x8f, 0x3e, 0xd8, 0x13, 0x20, 0xbf, 0x34, 0x7d, 0x96, 0xbe,
  0xd1, 0xee, 0xaa, 0xbe, 0xa6, 0x87, 0x21, 0xbe, 0xe7, 0x40, 0x0b, 0x3e,
  0x3f, 0x31, 0x7d, 0xbd, 0xd4, 0xe2, 0x1d, 0x3b, 0x24, 0x98, 0x92, 0xbb,
  0xc7, 0x62, 0xbe, 0xbe, 0x84, 0xaf, 0x99, 0x3e, 0xf3, 0xf9, 0xb3, 0xbd,
  0xc3, 0xe4, 0x13, 0x3e, 0x85, 0x77, 0x04, 0xbe, 0xe3, 0x64, 0xad, 0x3e,
  0x61, 0x26, 0xb2, 0x3b, 0xd0, 0x9b, 0x86, 0x3e, 0xe2, 0xf5, 0x5c, 0xbe,
  0x44, 0xd2, 0xb4, 0x3b, 0x51, 0x8e, 0xaf, 0xbd, 0xef, 0xcc, 0x0a, 0x3e,
  0xee, 0xf7, 0xd2, 0x3d, 0x6b, 0x96, 0xba, 0xbe, 0x92, 0x9d, 0x9d, 0xbd,
  0xd7, 0x86, 0xe1, 0x3d, 0xc7, 0xee, 0x8a, 0xbe, 0x15, 0x1b, 0x81, 0x3e,
  0x32, 0xee, 0xc7, 0x3c, 0x62, 0xff, 0x01, 0x3e, 0xc1, 0xfd, 0xff, 0xbe,
  0xa4, 0x01, 0x25, 0x3e, 0x0b, 0xf2, 0x84, 0x3d, 0xd0, 0xa5, 0xa5, 0x3c,
  0xde, 0x52, 0xd9, 0xbe, 0xcf, 0xf0, 0x88, 0x3c, 0x83, 0xf4, 0xbc, 0xbd,
  0x48, 0x6d, 0xe8, 0x3d, 0xff, 0x1c, 0xdd, 0xbd, 0x1b, 0x20, 0xa6, 0xbb,
  0xfc, 0x04, 0x08, 0x3e, 0xb6, 0x3c, 0xdc, 0x3d, 0xbf, 0x5c, 0x8b, 0x3d,
  0x82, 0x78, 0x03, 0x3f, 0x89, 0x0f, 0x8d, 0xbe, 0xcf, 0x91, 0x76, 0x3e,
  0x17, 0xab, 0x94, 0xbe, 0x45, 0xef, 0xd0, 0x3c, 0x56, 0x6b, 0x79, 0x3d,
  0x35, 0x7d, 0x8c, 0x3e, 0x08, 0xfd, 0xba, 0xbe, 0xea, 0xf3, 0x47, 0xbb,
  0xc3, 0x2b, 0x74, 0xbd, 0x5b, 0xe7, 0x9a, 0x3e, 0xa9, 0xf1, 0x8b, 0x3d,
  0xbc, 0x66, 0x46, 0x3d, 0xbf, 0xf5, 0x83, 0x3e, 0x1e, 0x7b, 0xa9, 0x3d,
  0xe7, 0x93, 0x08, 0x3e, 0x4e, 0x9b, 0x99, 0x3e, 0x38, 0x2e, 0x03, 0xbe,
  0x3b, 0x28, 0xc1, 0x3d, 0xbb, 0x7a, 0x11, 0xbe, 0x44, 0xf4, 0x6e, 0x3e,
  0xb1, 0x20, 0x2c, 0xbd, 0x02, 0xb9, 0x9d, 0x3e, 0x66, 0xb8, 0xc0, 0xbe,
  0x1b, 0x5a, 0xc4, 0x3c, 0xcf, 0xc5, 0x02, 0xbe, 0xc4, 0x64, 0x0d, 0x3d,
  0xd3, 0x60, 0x0d, 0x3c, 0x0a, 0x12, 0x50, 0xbc, 0xda, 0x63, 0x28, 0x3d,
  0x09, 0x37, 0x72, 0x3c, 0x04, 0x63, 0x8b, 0xbe, 0x4e, 0xf0, 0xab, 0x3e,
  0xf4, 0xd5, 0x13, 0xbe, 0x92, 0x20, 0x91, 0xbd, 0x0e, 0x28, 0xa8, 0xbe,
  0xea, 0x78, 0x99, 0x3d, 0x7f, 0x72, 0x99, 0x3d, 0x2d, 0x10, 0x77, 0x3e,
  0x0e, 0x39, 0x05, 0xbf, 0x24, 0xc5, 0xf8, 0xbc, 0x68, 0x25, 0x69, 0xbd,
  0x15, 0x5f, 0x29, 0xbd, 0xae, 0x15, 0x28, 0x3d, 0xda, 0x35, 0x6c, 0xbb,
  0xa4, 0xa4, 0xd8, 0x3d, 0x22, 0x7d, 0xa6, 0x3c, 0x37, 0xb0, 0xe8, 0xbc,
  0x47, 0xa4, 0x16, 0x3e, 0xcc, 0xac, 0x2d, 0x3d, 0xfd, 0x01, 0x24, 0xbe,
  0x04, 0xf6, 0x06, 0xbf, 0x69, 0x89, 0x0b, 0xbe, 0x34, 0x1d, 0xa5, 0x3d,
  0x24, 0x57, 0x56, 0x3e, 0xc1, 0xa4, 0xed, 0xbe, 0x02, 0xd1, 0x63, 0xbe,
  0x66, 0x69, 0x14, 0x3d, 0x51, 0x4b, 0x2a, 0xbe, 0xb0, 0x46, 0x18, 0xbe,
  0xf2, 0xe3, 0x34, 0x3d, 0x7b, 0x6c, 0xf4, 0x3d, 0x91, 0x23, 0xa4, 0x3c,
  0x1a, 0xff, 0xec, 0xbb, 0xe8, 0x2d, 0x7b, 0x3e, 0xf3, 0xc7, 0x00, 0xbe,
  0xe0, 0x31, 0x1f, 0x3c, 0x24, 0x56, 0xdf, 0xbd, 0xf5, 0xd1, 0x60, 0xbe,
  0x1c, 0xf4, 0xca, 0xbd, 0xb2, 0x17, 0xfd, 0xbd, 0x76, 0xe3, 0xbb, 0x3c,
  0xd1, 0x30, 0xb5, 0xbd, 0xf4, 0x4f, 0x06, 0x3e, 0x0b, 0x04, 0x5f, 0xbe,
  0x46, 0x68, 0xb9, 0xbd, 0x20, 0x50, 0xcf, 0x3c, 0x9f, 0xc2, 0x4e, 0x3e,
  0x86, 0xf2, 0xcf, 0xbd, 0xed, 0x99, 0x41, 0x3e, 0xd5, 0x75, 0x8c, 0x3d,
  0xdd, 0xde, 0x0e, 0xbe, 0x35, 0xb5, 0x69, 0xbe, 0xc6, 0x0d, 0x41, 0xbc,
  0x94, 0xdd, 0x0a, 0x3c, 0xc6, 0x51, 0x2b, 0xbe, 0xcd, 0x04, 0xc8, 0xbd,
  0xde, 0x9c, 0x74, 0xbd, 0xf0, 0xf3, 0x74, 0xbc, 0x2c, 0xe3, 0x86, 0xbc,
  0xe1, 0x2c, 0x37, 0xbe, 0x85, 0x6a, 0x0c, 0xbe, 0xe9, 0x17, 0x5a, 0xbe,
  0x0a, 0xf7, 0xfc, 0x3d, 0xc4, 0xec, 0xf2, 0xbc, 0x33, 0x65, 0x67, 0xbd,
  0x4f, 0x95, 0x31, 0xbe, 0x0b, 0xc6, 0xbc, 0x3d, 0x02, 0x2e, 0x9e, 0xbe,
  0xc1, 0xdd, 0x3e, 0xbe, 0x6b, 0x10, 0x48, 0x3e, 0x7e, 0x18, 0x71, 0xbe,
  0x30, 0xa9, 0x61, 0x3d, 0xe3, 0x15, 0x97, 0xbc, 0x90, 0xa6, 0xec, 0x3d,
  0x71, 0x75, 0x74, 0x3c, 0x08, 0xc5, 0xec, 0x3d, 0xf3, 0x35, 0xd8, 0x3d,
  0xd9, 0xba, 0x29, 0x3d, 0xd6, 0x97, 0xd7, 0xbd, 0xe6, 0xad, 0xd4, 0xbd,
  0x9e, 0x56, 0x8b, 0x3d, 0xd0, 0x6e, 0x32, 0x3e, 0x67, 0xf8, 0xb3, 0x3c,
  0xb7, 0x50, 0x31, 0xbe, 0xad, 0x91, 0x60, 0xbc, 0x0d, 0xaf, 0x00, 0xbd,
  0x47, 0x21, 0x59, 0x3d, 0x30, 0x58, 0xc7, 0xbd, 0xf9, 0x67, 0x05, 0xbe,
  0x09, 0x35, 0x46, 0xbe, 0xef, 0x0c, 0x80, 0x3d, 0x72, 0x6a, 0x71, 0xbe,
  0xfb, 0x57, 0x75, 0xbe, 0xd8, 0x32, 0x8a, 0xbe, 0xc6, 0x7f, 0x1a, 0xbe,
  0x56, 0x00, 0xc9, 0x3c, 0x63, 0xbc, 0x96, 0xbd, 0xae, 0xd8, 0xe7, 0xbd,
  0x18, 0xff, 0x50, 0xbe, 0x7d, 0xa4, 0x79, 0xbe, 0xd3, 0x54, 0x8f, 0xbd,
  0x91, 0x40, 0x21, 0x3e, 0xbd, 0xaa, 0xdd, 0xbd, 0x0a, 0x8a, 0x46, 0xbe,
  0xeb, 0x8b, 0x2c, 0xbe, 0x15, 0x58, 0x91, 0x3d, 0xf4, 0xe8, 0x0d, 0xbe,
  0x62, 0xa2, 0x65, 0x3d, 0x7e, 0x71, 0x7a, 0xbe, 0xcf, 0x94, 0xad, 0x3d,
  0x44, 0xe0, 0x07, 0x3d, 0x40, 0x8a, 0x8a, 0xbc, 0x64, 0x11, 0x96, 0xbd,
  0x77, 0x32, 0xea, 0x3d, 0xc4, 0xdf, 0x79, 0xbe, 0xe6, 0x7c, 0xed, 0xbd,
  0x51, 0x1b, 0x17, 0xbd, 0x47, 0x69, 0xef, 0xba, 0x2f, 0x4f, 0x2d, 0xbe,
  0xd5, 0x1f, 0x2e, 0x3e, 0x89, 0xa2, 0xd7, 0xbd, 0x0a, 0xce, 0xc2, 0x3b,
  0x78, 0xe9, 0xea, 0xbd, 0xc2, 0x72, 0xba, 0x3b, 0xd7, 0x39, 0x47, 0x3d,
  0x55, 0xe0, 0x3a, 0x3d, 0x77, 0xda, 0xb7, 0x3d, 0xf8, 0x1b, 0x2b, 0xbe,
  0xbe, 0xca, 0x18, 0xbd, 0x6f, 0x16, 0x44, 0xbe, 0x71, 0xa4, 0x98, 0x3c,
  0xc6, 0xec, 0x4e, 0xbc, 0x04, 0x1a, 0x5c, 0xbd, 0x26, 0xf9, 0x46, 0xbe,
  0x50, 0x3a, 0xc3, 0x3c, 0x2f, 0xfb, 0x10, 0xbc, 0xfa, 0xde, 0x94, 0xbc,
  0x31, 0x61, 0x2d, 0xbe, 0x6d, 0x6f, 0xfa, 0x3d, 0x3a, 0x30, 0x0e, 0xbe,
  0x8f, 0xdf, 0x81, 0xbe, 0x30, 0xad, 0xa3, 0xbd, 0xc0, 0xfd, 0x2b, 0xbe,
  0x9c, 0xd2, 0xe8, 0xbd, 0xbb, 0x5a, 0x66, 0xbd, 0x12, 0x11, 0x0b, 0xbc,
  0x6c, 0x77, 0x9e, 0x3d, 0xe1, 0xe1, 0x19, 0x3e, 0x82, 0x92, 0xf8, 0xbe,
  0x19, 0xbd, 0x0c, 0x3f, 0x68, 0xc2, 0x19, 0x3e, 0x23, 0x8e, 0xa4, 0x3e,
  0x72, 0xb9, 0x21, 0xbf, 0xe8, 0xdc, 0xe4, 0xbd, 0xe6, 0x50, 0x94, 0xbe,
  0x4a, 0xb7, 0x18, 0xbe, 0xda, 0x99, 0x04, 0x3e, 0xa9, 0x94, 0xf0, 0xbd,
  0x3b, 0x3a, 0xa3, 0xbd, 0x1f, 0x1e, 0xf7, 0x3c, 0x02, 0x73, 0x18, 0xbf,
  0xe2, 0xd3, 0xac, 0x3e, 0x2d, 0xf7, 0x0d, 0xbe, 0xd4, 0x81, 0x72, 0x3e,
  0x5e, 0x6a, 0x82, 0xbe, 0xaf, 0x6f, 0x11, 0x3e, 0xbc, 0x82, 0xae, 0x3d,
  0xe8, 0x58, 0x9f, 0x3e, 0x08, 0x3f, 0xa8, 0xbe, 0x9d, 0x4c, 0x6d, 0xbc,
  0x5c, 0x84, 0xd3, 0x3b, 0x95, 0x46, 0x1d, 0x3e, 0x19, 0x3b, 0xd6, 0x3d,
  0x83, 0x94, 0xa9, 0xbe, 0x25, 0x53, 0x0b, 0xbd, 0x14, 0xd3, 0xa8, 0x3d,
  0xa7, 0xbb, 0x8f, 0xbe, 0xf5, 0xc2, 0xbe, 0x3d, 0x82, 0xa4, 0x3b, 0xbe,
  0x41, 0x47, 0x06, 0x3e, 0x86, 0x83, 0xd1, 0xbe, 0xf6, 0x61, 0x92, 0x3d,
  0x67, 0x87, 0x8b, 0xbc, 0xaf, 0x0f, 0x65, 0x3e, 0x2a, 0x59, 0xd3, 0xbe,
  0xa1, 0x8c, 0x7c, 0xbd, 0xff, 0x58, 0x33, 0xbe, 0xb0, 0xd5, 0x58, 0x3e,
  0xb5, 0x48, 0x19, 0xbb, 0x28, 0x54, 0xaf, 0xbd, 0xc7, 0x26, 0xe8, 0x3d,
  0x94, 0x94, 0xcc, 0x3c, 0x93, 0x81, 0x02, 0xbe, 0xc1, 0x5c, 0x15, 0x3e,
  0xd1, 0xa1, 0x62, 0xbe, 0x3d, 0x8b, 0xc6, 0x3d, 0xf2, 0xfe, 0x9e, 0xbe,
  0x79, 0xe2, 0xc9, 0x3d, 0x94, 0x52, 0xe1, 0x3d, 0xb6, 0x53, 0xba, 0x3e,
  0x86, 0x51, 0xcd, 0xbd, 0xe9, 0x5c, 0xdd, 0xbd, 0x9f, 0x6a, 0x42, 0xbe,
  0x9a, 0xed, 0x7f, 0x3e, 0xb4, 0x79, 0xfb, 0x3c, 0x62, 0x1b, 0x3c, 0x3e,
  0x70, 0x3a, 0x23, 0x3e, 0x7b, 0xeb, 0x2a, 0x3d, 0xa2, 0xc6, 0x20, 0xbe,
  0xbf, 0x29, 0xf4, 0x3d, 0x36, 0x7e, 0x58, 0xbe, 0x0f, 0xb6, 0x44, 0x3e,
  0xcb, 0x34, 0x79, 0xbe, 0x5a, 0x65, 0x48, 0x3d, 0xdf, 0x33, 0x84, 0x3d,
  0x23, 0xd1, 0x0e, 0x3e, 0x2e, 0x07, 0x92, 0xbe, 0x60, 0x42, 0x3a, 0xbd,
  0x2c, 0xc0, 0xc4, 0xbe, 0xb3, 0x4b, 0x00, 0x3e, 0x09, 0x20, 0x25, 0xbd,
  0xd1, 0x00, 0xfc, 0xbd, 0x10, 0xa7, 0x29, 0xbd, 0xa8, 0x39, 0x43, 0x3d,
  0xf9, 0x54, 0xf2, 0xbe, 0xdf, 0x9d, 0x44, 0x3e, 0x88, 0x0d, 0x6d, 0xbd,
  0x4a, 0xda, 0x66, 0xbd, 0x85, 0x5c, 0xba, 0xbe, 0x89, 0x4d, 0x94, 0xbd,
  0xa1, 0x7f, 0x0a, 0xbd, 0x55, 0x6c, 0xa9, 0x3e, 0x3c, 0x3d, 0x91, 0xbe,
  0xe5, 0x92, 0x6f, 0xbe, 0x06, 0xf7, 0x4e, 0xbe, 0x95, 0x10, 0x4b, 0x3d,
  0x70, 0x5d, 0x03, 0x3d, 0x02, 0x05, 0xee, 0xbd, 0xaf, 0x1d, 0x25, 0xbe,
  0xcb, 0x70, 0x51, 0x3d, 0x62, 0x0c, 0x94, 0xbe, 0x14, 0x49, 0xb3, 0x3e,
  0x6c, 0x32, 0x45, 0xbd, 0x97, 0xc0, 0x78, 0x3c, 0x8e, 0x07, 0xba, 0xbe,
  0x8a, 0xd6, 0x9b, 0xbe, 0x9e, 0xf8, 0xd6, 0x3c, 0xd3, 0xa8, 0x45, 0x3e,
  0x5b, 0xe9, 0xb6, 0xbe, 0x4a, 0xe1, 0x1c, 0xbe, 0xfa, 0xa1, 0x04, 0xbd,
  0x5b, 0xe0, 0xb1, 0xbd, 0x4b, 0x4a, 0x67, 0xbe, 0xdb, 0x24, 0x80, 0x3b,
  0x23, 0x6a, 0x43, 0x3d, 0x4a, 0x10, 0xbc, 0x3d, 0x45, 0x90, 0xc8, 0xbc,
  0x2c, 0x13, 0x65, 0x3e, 0x3a, 0x60, 0xa5, 0xbd, 0x76, 0x57, 0xed, 0xbd,
  0xca, 0x4a, 0x21, 0xbf, 0x8c, 0x3f, 0x85, 0xbe, 0x78, 0xed, 0xdb, 0x3d,
  0x12, 0x42, 0x6a, 0x3c, 0xa6, 0x37, 0x11, 0xbf, 0x9b, 0xeb, 0xa8, 0xbe,
  0xaf, 0xe2, 0x1a, 0xbf, 0xad, 0x1c, 0x23, 0xbe, 0x68, 0xcc, 0x89, 0xbd,
  0x56, 0xa9, 0x9b, 0xbc, 0x83, 0xb7, 0xa6, 0xbe, 0x60, 0x32, 0x8b, 0xbd,
  0x75, 0x4c, 0xeb, 0xbe, 0xb0, 0x75, 0x76, 0x3b, 0x72, 0xc5, 0x60, 0xbe,
  0x21, 0xcc, 0xfd, 0xbd, 0x7c, 0x56, 0x82, 0xbd, 0x5d, 0x4c, 0xac, 0xbd,
  0xd6, 0x30, 0x02, 0x3e, 0x90, 0x75, 0x89, 0x3e, 0xb0, 0x5c, 0x99, 0xbe,
  0xba, 0xcb, 0x3f, 0x3e, 0x68, 0xa3, 0xf9, 0xbd, 0xc9, 0x0d, 0x4e, 0xbd,
  0xf2, 0x56, 0x74, 0xbe, 0x36, 0x63, 0x9e, 0xbe, 0x33, 0x15, 0x30, 0x3e,
  0x5a, 0x15, 0x13, 0xbd, 0x42, 0x9f, 0xbc, 0xbe, 0x6c, 0xde, 0x11, 0x3f,
  0x93, 0xcc, 0x4a, 0xbe, 0x25, 0xf5, 0x0a, 0xbe, 0x2a, 0xba, 0x2e, 0xbe,
  0xd3, 0x9c, 0xea, 0x3d, 0xad, 0x5e, 0x69, 0xbc, 0xf0, 0x17, 0x6a, 0x3e,
  0xbf, 0x14, 0x25, 0xbf, 0x96, 0xa1, 0xa9, 0x3d, 0xfa, 0x90, 0x88, 0xbd,
  0xed, 0x6f, 0x53, 0xbd, 0x58, 0x1f, 0x48, 0xbe, 0x25, 0x8e, 0xa4, 0xbe,
  0x0f, 0xf7, 0xc2, 0xbb, 0xfc, 0x07, 0x09, 0xbd, 0xbd, 0x7e, 0xd7, 0xbe,
  0xc0, 0x35, 0xef, 0x3e, 0xd8, 0xd0, 0x55, 0xbe, 0xcb, 0xa4, 0x0a, 0xbe,
  0x02, 0xc9, 0x69, 0x3d, 0x10, 0x8c, 0x97, 0x3d, 0x42, 0x80, 0x65, 0xbd,
  0xf6, 0xb7, 0x59, 0x3e, 0xff, 0xd0, 0xcd, 0xbc, 0x00, 0xf0, 0xd0, 0x3e,
  0xc8, 0x65, 0x24, 0xbe, 0x12, 0x54, 0xe4, 0xbd, 0x69, 0x01, 0x71, 0xbe,
  0x90, 0xd0, 0x73, 0xbe, 0x8e, 0xf1, 0x2a, 0x3e, 0xdc, 0x76, 0xd0, 0xbc,
  0xb6, 0x41, 0xce, 0x3e, 0x0a, 0xb7, 0xe2, 0x3e, 0x3f, 0x5b, 0x83, 0x3e,
  0x3e, 0xeb, 0x27, 0xbc, 0x3d, 0x5a, 0x08, 0xbe, 0xb3, 0x8e, 0xfc, 0x3a,
  0x7c, 0xb5, 0x15, 0x3e, 0x9e, 0xee, 0x30, 0xbe, 0x57, 0x77, 0x69, 0x3d,
  0xa7, 0x9b, 0xa3, 0x3e, 0x73, 0x6b, 0x31, 0xbe, 0x90, 0xcf, 0x96, 0xbc,
  0x04, 0x21, 0x2f, 0xbd, 0xfc, 0x76, 0x3d, 0x3d, 0x37, 0xa8, 0x86, 0x3e,
  0xbd, 0x66, 0xc3, 0xbd, 0x2f, 0xd4, 0xd3, 0x3d, 0x7c, 0xca, 0x48, 0xbd,
  0x2b, 0x42, 0x01, 0x3e, 0x16, 0x00, 0x03, 0x3d, 0x73, 0xa3, 0x4c, 0xbe,
  0x97, 0x97, 0x10, 0x3e, 0x28, 0xf2, 0xa5, 0x3d, 0x7e, 0xb2, 0x47, 0xbe,
  0xd3, 0xbb, 0x89, 0x3d, 0x7a, 0xfd, 0x75, 0x3e, 0xd4, 0xdc, 0x15, 0xbe,
  0x70, 0x71, 0x28, 0x3d, 0xf9, 0x12, 0x69, 0xbe, 0xd1, 0xf6, 0xc6, 0x3d,
  0x86, 0xc3, 0xb6, 0x3e, 0x72, 0x8b, 0xc0, 0xbd, 0x9d, 0x64, 0xd0, 0x3d,
  0x95, 0x08, 0x97, 0x3e, 0x41, 0x5a, 0x15, 0x3e, 0x17, 0xfd, 0x2e, 0x3e,
  0xe8, 0xa9, 0x26, 0x3c, 0x22, 0x29, 0xec, 0x3e, 0x3d, 0x69, 0x05, 0x3d,
  0x8f, 0xa1, 0x18, 0x3e, 0xc0, 0x8f, 0x1c, 0xbd, 0x3c, 0x4c, 0x80, 0x3e,
  0x36, 0x56, 0xb6, 0xbd, 0xe7, 0x4b, 0x4c, 0x3d, 0xa9, 0xb5, 0xf5, 0x3d,
  0x15, 0x08, 0x0e, 0x3e, 0xbb, 0xd4, 0x35, 0x3e, 0xde, 0x4b, 0x87, 0x3c,
  0x88, 0xcd, 0x64, 0xbd, 0xe5, 0x8c, 0x5c, 0xbe, 0x19, 0x1e, 0xc7, 0x3d,
  0x02, 0x84, 0x7f, 0xbe, 0x36, 0x21, 0x25, 0x3e, 0xe4, 0x74, 0x8e, 0x3e,
  0x9c, 0xa5, 0xa1, 0xbe, 0x89, 0xbc, 0x4e, 0x3d, 0xf8, 0xd7, 0x1e, 0x3e,
  0x65, 0xab, 0x01, 0xbf, 0x71, 0x33, 0xc7, 0x3e, 0x04, 0x3a, 0xd8, 0x3d,
  0x97, 0x12, 0xbf, 0x3d, 0x6a, 0x07, 0x5f, 0xbe, 0x7b, 0xba, 0x65, 0xbe,
  0xac, 0x47, 0x88, 0xbd, 0x90, 0xe8, 0x62, 0xbd, 0x3d, 0x78, 0xbb, 0xbe,
  0x40, 0x5c, 0xa5, 0xbd, 0x32, 0xbb, 0x8f, 0xbe, 0x8e, 0xb4, 0xa7, 0x3d,
  0x7d, 0x85, 0x81, 0xbe, 0xcc, 0x93, 0xc4, 0x3e, 0x08, 0x2c, 0x58, 0xbd,
  0x11, 0x1e, 0x0c, 0x3e, 0x68, 0xda, 0x0a, 0x3e, 0x76, 0xd1, 0x08, 0xbe,
  0x69, 0x4b, 0x3a, 0x3d, 0xaf, 0x50, 0xa7, 0xbd, 0x23, 0x3d, 0x33, 0xbe,
  0x68, 0xd5, 0x89, 0xbe, 0x13, 0x0e, 0x4b, 0x3d, 0xe5, 0x78, 0x84, 0x3e,
  0x4b, 0x8c, 0x6a, 0x3e, 0x2b, 0x75, 0x99, 0xbe, 0x06, 0x1b, 0xeb, 0xbd,
  0x54, 0x08, 0x91, 0x3d, 0xac, 0x68, 0x2e, 0x3c, 0xc8, 0xe9, 0x7e, 0xbc,
  0x6d, 0xdb, 0xf7, 0xbc, 0x1b, 0xcf, 0x38, 0x3e, 0xa9, 0x39, 0xd8, 0x3c,
  0x65, 0x4e, 0xc4, 0x3d, 0x44, 0x84, 0x1d, 0xbe, 0xb0, 0xe1, 0x5d, 0x3b,
  0x83, 0x20, 0xd9, 0xbd, 0xcf, 0x1f, 0x08, 0xbe, 0x9f, 0x0d, 0x92, 0xbe,
  0x51, 0xb0, 0xbc, 0x3e, 0x67, 0x2e, 0x62, 0x3e, 0xa1, 0xe9, 0x19, 0xbe,
  0x6c, 0xa7, 0x57, 0xbd, 0x59, 0xfa, 0x0a, 0x3e, 0xaf, 0xfe, 0xb8, 0xbd,
  0xf2, 0xc2, 0xa4, 0x3e, 0xc4, 0x5c, 0x2b, 0x3e, 0x1a, 0xc4, 0xf9, 0x3d,
  0x18, 0x10, 0x48, 0x3e, 0x22, 0xd5, 0x90, 0x3d, 0x6a, 0x0b, 0x87, 0xbe,
  0x14, 0x58, 0xe5, 0x3c, 0xdd, 0xd1, 0xbb, 0xbd, 0x19, 0xcd, 0x0b, 0x3e,
  0xce, 0x1a, 0xaa, 0xbe, 0x26, 0x5d, 0x1c, 0x3f, 0x82, 0x18, 0x36, 0x3e,
  0xea, 0xa0, 0xa4, 0xbc, 0xb2, 0x9a, 0xc3, 0xbd, 0xb1, 0xb6, 0xaa, 0xbd,
  0x89, 0xa6, 0x46, 0xbc, 0xba, 0xd1, 0xd9, 0x3d, 0x27, 0x4b, 0xbc, 0x3e,
  0xa3, 0xa4, 0x74, 0xbe, 0xb8, 0xb0, 0xe3, 0x3d, 0xc5, 0xe5, 0x07, 0xbd,
  0xc2, 0x5d, 0x08, 0x3e, 0x00, 0xc2, 0xb7, 0xbd, 0x84, 0xf2, 0x9a, 0x3d,
  0xb4, 0x51, 0xc2, 0xbd, 0x69, 0xc7, 0x0f, 0xbe, 0xa3, 0xe6, 0x64, 0xbd,
  0x22, 0x87, 0xe6, 0x3c, 0x94, 0x97, 0xb7, 0x3d, 0x48, 0x55, 0xf4, 0xbd,
  0x7a, 0x42, 0xf3, 0x3d, 0x2c, 0x0d, 0x8e, 0xbd, 0x3a, 0x40, 0xfe, 0x3d,
  0xc6, 0x05, 0xaf, 0x3e, 0x83, 0xed, 0x40, 0xbe, 0xc8, 0x39, 0x0d, 0x3e,
  0xcf, 0x08, 0xfb, 0x3d, 0xd4, 0x05, 0x29, 0x3d, 0xf5, 0x91, 0xc3, 0xbb,
  0x09, 0xf4, 0x32, 0xbd, 0x8e, 0x9a, 0x0b, 0xbd, 0x4d, 0xbd, 0x65, 0xbe,
  0x68, 0x24, 0x93, 0xbd, 0xcb, 0x85, 0x56, 0x3e, 0xc4, 0xff, 0xfc, 0x3c,
  0xe2, 0x1b, 0x47, 0xbe, 0x4a, 0xd9, 0x6b, 0xbe, 0x23, 0xae, 0x1d, 0x3d,
  0x78, 0x12, 0xbf, 0xbe, 0x20, 0xd4, 0x8c, 0x3d, 0xc5, 0x10, 0x02, 0xbf,
  0xbe, 0x64, 0x42, 0xbd, 0x77, 0x7e, 0x8d, 0xbe, 0xe7, 0xe4, 0xea, 0xbd,
  0xe2, 0xd1, 0xad, 0xbd, 0x4b, 0x07, 0x81, 0xbe, 0xbb, 0x70, 0x80, 0xbc,
  0x31, 0x7b, 0x23, 0xbd, 0xa2, 0x13, 0x90, 0xbe, 0x42, 0xdd, 0x0a, 0x3e,
  0x2a, 0xcd, 0x6c, 0xbc, 0xde, 0x9e, 0xe4, 0xbd, 0x48, 0x13, 0x3b, 0x3e,
  0xf6, 0xc8, 0xa7, 0xbd, 0x0f, 0xe5, 0x81, 0xbe, 0x84, 0x41, 0x3e, 0xbe,
  0xb4, 0xbe, 0xbe, 0x3d, 0xc1, 0x68, 0xc5, 0xbd, 0x11, 0xa2, 0x83, 0x3e,
  0xb6, 0x47, 0x67, 0xbe, 0x5e, 0x17, 0x7b, 0xbe, 0x43, 0x6e, 0x91, 0xbe,
  0xc6, 0xda, 0x9e, 0x3c, 0x97, 0x27, 0x9b, 0xbd, 0x12, 0x5f, 0xa2, 0xbe,
  0x42, 0x52, 0x25, 0x3e, 0xb0, 0x4b, 0x28, 0x3d, 0x88, 0x99, 0xd7, 0xbe,
  0x08, 0xd0, 0xbb, 0xbc, 0x04, 0xa6, 0x8b, 0xbd, 0xc6, 0xd2, 0x85, 0x3e,
  0x35, 0x22, 0xba, 0xbc, 0xf4, 0x07, 0x0d, 0xbd, 0x78, 0x1f, 0x6e, 0x3e,
  0xc4, 0x20, 0x87, 0xbd, 0xae, 0x67, 0x74, 0xbd, 0x13, 0x36, 0x6d, 0xbb,
  0x68, 0xfa, 0x47, 0x3d, 0xcb, 0x05, 0x00, 0x3d, 0xb2, 0xa0, 0xd2, 0xbd,
  0x15, 0x98, 0xa2, 0x3c, 0x4e, 0xc6, 0xcd, 0xbe, 0xca, 0xa9, 0x2e, 0xbe,
  0xa3, 0x00, 0xb7, 0xbe, 0x74, 0x79, 0x5c, 0x3e, 0x9f, 0xf6, 0xf0, 0xbd,
  0xc4, 0xcc, 0x31, 0x3e, 0x3a, 0x98, 0xb6, 0x3d, 0x8e, 0x40, 0xa1, 0x3d,
  0x05, 0xe2, 0xe6, 0x3c, 0xc0, 0xf1, 0xee, 0x3d, 0x88, 0xbc, 0x93, 0xbe,
  0x81, 0xd3, 0xa6, 0x3c, 0x1a, 0x82, 0xf0, 0x3c, 0x46, 0x0f, 0x0c, 0xbd,
  0xa0, 0x48, 0xc0, 0xbd, 0x1e, 0xd8, 0x87, 0x3e, 0x1f, 0xfb, 0xcc, 0xbe,
  0x29, 0x36, 0x44, 0xbe, 0xec, 0x10, 0x91, 0xbe, 0x75, 0xc3, 0xdd, 0x3d,
  0x56, 0x1b, 0x11, 0xbd, 0xc7, 0x87, 0x5b, 0xbd, 0x12, 0xce, 0x18, 0x3e,
  0x46, 0xef, 0xc6, 0x3b, 0x60, 0x26, 0x09, 0xbe, 0x85, 0xe6, 0x8d, 0x3e,
  0x8c, 0x20, 0xb6, 0xbd, 0x97, 0x91, 0x80, 0x3d, 0x77, 0x44, 0xbb, 0xbe,
  0x71, 0x3c, 0x68, 0xbe, 0x61, 0x05, 0x9b, 0xbd, 0x4b, 0xe1, 0x28, 0x3e,
  0xc9, 0x6f, 0x18, 0xbe, 0x5d, 0x9c, 0x27, 0x3e, 0x6f, 0x26, 0xa4, 0xbe,
  0xab, 0x76, 0x62, 0x3e, 0xdf, 0x68, 0x62, 0xbb, 0x79, 0x2b, 0x96, 0xbd,
  0x9c, 0x96, 0x6d, 0x3d, 0x86, 0x3c, 0x13, 0x3e, 0x44, 0xe2, 0x08, 0xbe,
  0xe0, 0xa1, 0x44, 0x3e, 0x57, 0x6d, 0x6d, 0xbe, 0x42, 0xe2, 0x6d, 0x3e,
  0x1b, 0xd1, 0xfb, 0xbd, 0x25, 0xd0, 0x9a, 0xbe, 0x69, 0x06, 0x25, 0x3c,
  0x0b, 0x28, 0x42, 0xbe, 0x04, 0xc5, 0x95, 0x3d, 0x26, 0x39, 0xe0, 0x3d,
  0x40, 0x91, 0x5b, 0xbe, 0xef, 0x5a, 0xd5, 0x3e, 0x72, 0x33, 0x3d, 0xbe,
  0xa4, 0xd5, 0x9d, 0x3e, 0x37, 0xa8, 0xb3, 0x3e, 0x33, 0xa6, 0xc5, 0x3d,
  0x78, 0x1f, 0x50, 0xbd, 0x98, 0x74, 0x84, 0x3d, 0x8e, 0x27, 0x39, 0x3e,
  0xad, 0xb1, 0x78, 0xbd, 0xd9, 0xc6, 0x66, 0xbe, 0x69, 0xf8, 0x6f, 0xbd,
  0x93, 0x77, 0xcf, 0x3d, 0xe6, 0xcb, 0x19, 0xbe, 0xe7, 0x0d, 0x5c, 0x3e,
  0x1f, 0xdb, 0x93, 0x3e, 0xd9, 0x28, 0xdb, 0xbd, 0x1e, 0x3a, 0x84, 0x3e,
  0x0f, 0xb8, 0xdb, 0x3d, 0x83, 0x78, 0xe6, 0x3d, 0x2a, 0x3f, 0x82, 0xbe,
  0xb9, 0x88, 0x8e, 0xbd, 0xeb, 0x64, 0xb4, 0xbd, 0xb6, 0xf2, 0xb9, 0xbd,
  0x7c, 0x58, 0x56, 0xbe, 0x5b, 0xb6, 0x9b, 0x3d, 0xbb, 0xf9, 0x0d, 0xbd,
  0x1b, 0x61, 0x48, 0xbe, 0x29, 0xe1, 0x4e, 0xbe, 0x98, 0x4f, 0xa0, 0x3e,
  0xe8, 0xae, 0x8a, 0xbe, 0x7c, 0xb7, 0xa5, 0x3d, 0xb8, 0xaa, 0x16, 0x3d,
  0x64, 0xc2, 0x3d, 0xbe, 0xea, 0x92, 0x03, 0xbf, 0xee, 0x9c, 0x36, 0xbe,
  0x1b, 0xb5, 0xff, 0xbd, 0x42, 0xa3, 0xed, 0xbd, 0x21, 0x20, 0xbf, 0x3e,
  0x9e, 0x28, 0x84, 0xbe, 0xd1, 0x89, 0x81, 0xbd, 0x76, 0x17, 0xb0, 0xbe,
  0x76, 0x09, 0x75, 0xbe, 0x1d, 0x4f, 0xc6, 0x3e, 0xca, 0x8b, 0x94, 0xbd,
  0xf8, 0xc7, 0xd4, 0xbe, 0xbe, 0xaa, 0x48, 0x3e, 0x46, 0xae, 0xcf, 0x3e,
  0x3a, 0x89, 0x0d, 0x3e, 0x93, 0xe1, 0x87, 0x3e, 0xf3, 0x89, 0x44, 0x3e,
  0x70, 0x21, 0xf8, 0x3d, 0x4f, 0xd4, 0xce, 0xbd, 0xdf, 0xf0, 0x8c, 0x3d,
  0x5e, 0x4f, 0x8c, 0x3e, 0x60, 0xe7, 0x3a, 0xbe, 0xe8, 0x8f, 0xc6, 0x3d,
  0x6f, 0x18, 0x0d, 0xbd, 0xaa, 0x6c, 0xc3, 0x3d, 0x2a, 0x31, 0x47, 0x3e,
  0x3c, 0x62, 0xae, 0xbd, 0x01, 0xf6, 0x45, 0xbe, 0xdc, 0x60, 0xa4, 0xbd,
  0x94, 0xb7, 0x50, 0x3e, 0x62, 0xac, 0x09, 0x3d, 0x03, 0x07, 0x55, 0xbd,
  0x5c, 0x0c, 0x1b, 0x3e, 0x38, 0x64, 0xd0, 0x3d, 0x94, 0x83, 0x85, 0x3e,
  0xc5, 0xa5, 0x81, 0xbc, 0x21, 0x83, 0x48, 0x3e, 0x28, 0x58, 0x15, 0xbe,
  0xd9, 0xa9, 0x24, 0xba, 0x90, 0xbc, 0xc4, 0xbd, 0x9d, 0x39, 0x05, 0x3e,
  0xbc, 0xc8, 0xc0, 0x3d, 0x52, 0xf0, 0x19, 0xbe, 0x06, 0x4b, 0x1e, 0xbe,
  0xea, 0xc9, 0x01, 0x3e, 0x18, 0xa0, 0x27, 0x3e, 0x5f, 0xb3, 0xb2, 0xbd,
  0x32, 0x63, 0x84, 0x3d, 0x77, 0xc9, 0x74, 0xbe, 0xb5, 0xc4, 0x2b, 0xbd,
  0x9d, 0x8e, 0xa0, 0x3d, 0xf9, 0xfb, 0x13, 0xbd, 0x61, 0x20, 0x40, 0xbe,
  0x21, 0xd9, 0xf4, 0xbd, 0xcc, 0x5c, 0x17, 0xbe, 0xb0, 0x7b, 0x82, 0xbe,
  0x61, 0x3d, 0x93, 0x3e, 0x47, 0xb9, 0x6f, 0xbd, 0x1a, 0x52, 0x89, 0xbd,
  0x4b, 0x41, 0x03, 0xbe, 0xa6, 0x75, 0x37, 0xbe, 0xd9, 0xb2, 0x35, 0x3d,
  0x45, 0xab, 0xc1, 0x3d, 0xf0, 0x95, 0x86, 0x3d, 0x7d, 0x95, 0xa2, 0xbc,
  0x00, 0x90, 0xbc, 0xbd, 0x62, 0x63, 0x22, 0x3e, 0xb6, 0xb9, 0x6d, 0xbd,
  0xd2, 0xd5, 0x8b, 0xbe, 0xf0, 0xc7, 0x67, 0xbe, 0x87, 0x37, 0x98, 0xbe,
  0x7c, 0x94, 0x8c, 0xbb, 0x90, 0xb0, 0x10, 0xbe, 0x6b, 0xac, 0x5e, 0x3e,
  0x32, 0xb7, 0x1a, 0x3d, 0x9e, 0xec, 0xd4, 0x3d, 0x4c, 0x59, 0x8c, 0xbd,
  0x5f, 0x1e, 0x9c, 0x3d, 0xc9, 0x37, 0x2d, 0xbc, 0xc2, 0xed, 0x13, 0xbe,
  0xb4, 0x18, 0x9d, 0xbd, 0xe8, 0xb6, 0x84, 0xbc, 0x7c, 0x20, 0x03, 0x3e,
  0x12, 0x43, 0x8e, 0xbd, 0x6d, 0x8e, 0x07, 0xbf, 0xb5, 0x4f, 0x1b, 0x3d,
  0x0c, 0xef, 0xa7, 0xbe, 0xcb, 0x66, 0xc6, 0xbd, 0xb3, 0xd2, 0x47, 0xbe,
  0x81, 0xd2, 0x93, 0xbe, 0xd4, 0xc7, 0x6b, 0x3c, 0x60, 0x3d, 0x6f, 0x3e,
  0x9b, 0x64, 0x50, 0x3d, 0x91, 0x4c, 0x90, 0x3e, 0x9b, 0x40, 0x04, 0xbe,
  0xc6, 0x4d, 0xb6, 0xbe, 0xb1, 0xd5, 0xf7, 0x3d, 0xbc, 0x06, 0x53, 0x3e,
  0xa7, 0xd8, 0xee, 0xbd, 0xc8, 0x81, 0x28, 0xbc, 0x2f, 0x8b, 0xe2, 0xbe,
  0x25, 0x52, 0x54, 0xbe, 0x2c, 0x6e, 0x8d, 0xbe, 0xb1, 0x01, 0x96, 0xbe,
  0x58, 0xb7, 0x96, 0xbe, 0x93, 0xc7, 0xff, 0xbd, 0xdf, 0x66, 0x2a, 0xbc,
  0x1f, 0x3e, 0x80, 0xbe, 0x6c, 0xec, 0x52, 0xbe, 0x9e, 0x83, 0xf1, 0xbe,
  0xc1, 0x14, 0x7b, 0xbc, 0x82, 0xb8, 0x24, 0xbe, 0xcc, 0x88, 0xfd, 0xbe,
  0x96, 0xea, 0xfd, 0x3a, 0xfc, 0x53, 0x24, 0xbe, 0x52, 0xd7, 0x21, 0xbd,
  0xf0, 0x41, 0xa6, 0x3e, 0xba, 0x44, 0x83, 0xbe, 0x88, 0x82, 0xc8, 0x3d,
  0xee, 0xca, 0x42, 0xbf, 0xc2, 0xd0, 0x08, 0xbe, 0xd4, 0x7f, 0x86, 0x3e,
  0x90, 0xfa, 0xc1, 0x3d, 0xb4, 0x3f, 0xbb, 0xbe, 0x3e, 0x18, 0x67, 0xbc,
  0x50, 0x4f, 0x5c, 0x3e, 0x38, 0xd8, 0x8e, 0xbd, 0xa7, 0x06, 0x19, 0x3e,
  0x57, 0xb4, 0x80, 0xbe, 0x19, 0xc3, 0xf4, 0x3c, 0xf5, 0xc9, 0xfa, 0x3d,
  0x4a, 0xbf, 0x60, 0x3d, 0xd5, 0x70, 0x25, 0x3e, 0xd1, 0x36, 0x6f, 0xbe,
  0x9e, 0xe9, 0x0f, 0xbe, 0x88, 0xe2, 0xd9, 0xbe, 0x7e, 0x15, 0x12, 0x3e,
  0x74, 0xb4, 0xd6, 0x3d, 0x22, 0x6a, 0x19, 0xbd, 0x45, 0x37, 0x16, 0xbe,
  0xde, 0x3c, 0xf3, 0xbe, 0x21, 0x89, 0x24, 0x3e, 0x00, 0xb5, 0xa0, 0x3c,
  0x86, 0xb4, 0xa9, 0xbd, 0xd5, 0x22, 0x0a, 0xbe, 0xcd, 0xf3, 0x07, 0x3e,
  0xe8, 0x8e, 0x13, 0x3e, 0x2e, 0x6a, 0x1a, 0x3d, 0xcf, 0x31, 0x97, 0x3e,
  0xbe, 0xfc, 0xb2, 0xbe, 0xf3, 0x77, 0xde, 0xbd, 0xcd, 0xc4, 0x54, 0xbe,
  0xad, 0xcc, 0x8e, 0x3e, 0xa4, 0x5e, 0x54, 0x3d, 0xd7, 0x46, 0x61, 0xbd,
  0x7b, 0x29, 0x71, 0xbe, 0x7c, 0xb0, 0x9e, 0xbe, 0xf1, 0x36, 0x5b, 0x3d,
  0x68, 0xf7, 0xe6, 0x3c, 0x93, 0xb0, 0x1b, 0xbb, 0xd3, 0x9c, 0x15, 0xbf,
  0x7e, 0x2d, 0xfa, 0x3b, 0xaf, 0x5d, 0xe5, 0x3d, 0xd9, 0x16, 0x9d, 0x3d,
  0x2b, 0x43, 0x46, 0x3e, 0x89, 0xd1, 0x56, 0xbe, 0xf3, 0x38, 0xc7, 0xbd,
  0x84, 0x3d, 0x06, 0xbf, 0x98, 0x59, 0x40, 0x3e, 0xf1, 0x09, 0xd3, 0x3e,
  0xc8, 0x57, 0x7b, 0xbd, 0xbd, 0x39, 0xf2, 0xbc, 0xa9, 0xcd, 0x6c, 0xbe,
  0xc2, 0x2a, 0xe8, 0x3d, 0xc6, 0x1a, 0x12, 0xbd, 0x6f, 0xc7, 0x8d, 0x3c,
  0x6a, 0x8e, 0xe1, 0xbe, 0x71, 0xd4, 0x8f, 0x3d, 0xbf, 0xa9, 0x96, 0x3e,
  0x8c, 0x16, 0x15, 0x3d, 0xb1, 0x35, 0x3f, 0x3e, 0x2e, 0x97, 0xc1, 0xbe,
  0xc1, 0x93, 0x7e, 0xbe, 0xd0, 0x11, 0xc4, 0xbe, 0xbe, 0xf3, 0x9a, 0xbc,
  0x12, 0x1e, 0xd4, 0x3e, 0x80, 0x0b, 0xae, 0xbd, 0xe1, 0xa9, 0x2d, 0xbe,
  0x33, 0xd3, 0x13, 0xbe, 0xa6, 0x57, 0xf0, 0x3e, 0xee, 0x96, 0xa9, 0x3c,
  0x8b, 0x86, 0xc5, 0xbd, 0xf5, 0x17, 0x94, 0xbe, 0x46, 0xd4, 0x4f, 0x3c,
  0x8a, 0x6e, 0x82, 0xbe, 0x0b, 0x1e, 0x07, 0x3e, 0x63, 0xf2, 0x48, 0x3e,
  0xe6, 0xa3, 0x65, 0xbe, 0x4e, 0x85, 0x14, 0xbd, 0x44, 0x1f, 0x62, 0xbe,
  0x29, 0x22, 0xad, 0x3d, 0xed, 0x47, 0xca, 0x3e, 0xab, 0xd6, 0xa5, 0xbd,
  0x01, 0xfc, 0xae, 0xbd, 0x00, 0xdb, 0xc3, 0xbd, 0x97, 0x05, 0x04, 0x3f,
  0x94, 0xa0, 0xa6, 0x3d, 0x2d, 0x9e, 0x75, 0x3c, 0xf4, 0x8a, 0x11, 0xbe,
  0x47, 0x32, 0x2a, 0x3e, 0x33, 0x99, 0x8a, 0x3e, 0x0b, 0xd9, 0x8a, 0x3d,
  0x23, 0x2f, 0x4f, 0x3e, 0x39, 0x27, 0x54, 0xb9, 0x60, 0x0b, 0x17, 0x3d,
  0xb6, 0xd4, 0xd1, 0xbc, 0x16, 0xf5, 0xcd, 0x3c, 0x8b, 0x69, 0x9c, 0x3d,
  0x63, 0x9d, 0x64, 0xbc, 0x07, 0x29, 0x92, 0xbe, 0xa6, 0x49, 0xa8, 0xbd,
  0x1b, 0x50, 0xc0, 0x3d, 0xab, 0xcf, 0xc3, 0x3d, 0x97, 0xe3, 0xee, 0xba,
  0xb2, 0xa3, 0xd7, 0x3e, 0x11, 0xd7, 0x4f, 0x3e, 0x61, 0x54, 0xb0, 0x3e,
  0x23, 0x7b, 0xfa, 0x3c, 0xe3, 0x05, 0x23, 0x3e, 0x7f, 0xa8, 0x9c, 0xbe,
  0xe9, 0xba, 0x69, 0xbc, 0x77, 0xa4, 0x56, 0x3d, 0x70, 0x1a, 0xc2, 0x3e,
  0x08, 0x5b, 0x96, 0xbe, 0xf8, 0x1d, 0xec, 0xbe, 0x02, 0x6a, 0xfc, 0x3e,
  0xee, 0xa9, 0x9a, 0x3e, 0x50, 0xf8, 0x8f, 0xbd, 0xe8, 0xc3, 0x86, 0x3d,
  0xe2, 0x2f, 0xa0, 0xbe, 0x7d, 0xad, 0x82, 0x3e, 0xe3, 0x18, 0x4b, 0xbe,
  0x2f, 0xd0, 0x79, 0x3e, 0xc1, 0x7b, 0x02, 0xbe, 0xa5, 0x7e, 0x02, 0xbb,
  0x35, 0x57, 0xae, 0x3e, 0x8f, 0xc0, 0x09, 0xbe, 0x25, 0x25, 0x6f, 0xbe,
  0xec, 0x15, 0x85, 0x3e, 0x7c, 0x7a, 0xd5, 0x3d, 0xf3, 0xf2, 0x0b, 0xbf,
  0xd8, 0xab, 0x3d, 0xbb, 0xb8, 0x6f, 0xe5, 0xbc, 0xf4, 0xe2, 0x43, 0xbe,
  0x72, 0xd6, 0x7e, 0xbd, 0xa1, 0x65, 0xa8, 0x3c, 0xbf, 0x79, 0xbf, 0x3e,
  0x68, 0x82, 0x37, 0x3e, 0xcb, 0xa0, 0xb1, 0xbd, 0x40, 0xbe, 0xfd, 0xbd,
  0xbb, 0xab, 0x06, 0x3e, 0xa4, 0x54, 0x1a, 0x3c, 0x5c, 0xc4, 0x1e, 0x3c,
  0xc3, 0x99, 0xc0, 0x3c, 0x54, 0x55, 0x63, 0x3c, 0x03, 0x53, 0x93, 0x3d,
  0x9a, 0x4a, 0x15, 0x3d, 0xf6, 0xdb, 0x96, 0xbe, 0xe8, 0xa9, 0x0c, 0x3f,
  0x49, 0xf0, 0x5f, 0xbd, 0x44, 0x83, 0xb9, 0xbd, 0x57, 0xa6, 0x62, 0xbd,
  0x21, 0x64, 0xf9, 0x3e, 0x41, 0x00, 0x51, 0xbd, 0xce, 0x4a, 0x8a, 0x3e,
  0xe8, 0xc7, 0x08, 0xbd, 0x50, 0x6e, 0x63, 0xbd, 0x95, 0xf1, 0x03, 0x3c,
  0x44, 0xd2, 0x2b, 0xbd, 0x67, 0xac, 0xb4, 0x3d, 0x8f, 0x9a, 0xb7, 0x3e,
  0x38, 0x20, 0x00, 0xbd, 0x5b, 0xe9, 0x42, 0x3c, 0x0e, 0x21, 0x41, 0xbd,
  0x6e, 0x99, 0xfb, 0x3e, 0x8a, 0x7a, 0x21, 0x3e, 0x9a, 0x75, 0x52, 0x3d,
  0x89, 0xb4, 0x54, 0xbe, 0xf4, 0x1a, 0xec, 0x3e, 0xd9, 0x41, 0xbc, 0xbd,
  0x54, 0xe3, 0x62, 0x3d, 0xf8, 0xdb, 0xa9, 0x3b, 0xce, 0x85, 0xab, 0x3d,
  0xda, 0xea, 0x41, 0x3d, 0x56, 0x5d, 0xf8, 0xbd, 0x90, 0xa1, 0xcc, 0x3c,
  0xdd, 0x09, 0x9c, 0x3e, 0x78, 0x6d, 0x53, 0xbe, 0xb0, 0x06, 0xa1, 0xbe,
  0xec, 0x95, 0x35, 0x3e, 0xa5, 0xea, 0x0e, 0x3f, 0x01, 0x24, 0xac, 0xbd,
  0xce, 0x4f, 0x00, 0x3c, 0x79, 0x79, 0x85, 0xbe, 0xa1, 0x25, 0x37, 0x3e,
  0x96, 0x46, 0x1d, 0xbe, 0x19, 0x7f, 0x0d, 0x3f, 0xb7, 0xcd, 0x16, 0xbd,
  0x93, 0xab, 0x1e, 0x3e, 0x91, 0x4e, 0x0c, 0xbd, 0xae, 0x69, 0xe4, 0xbd,
  0x09, 0x3a, 0xdf, 0xbc, 0x23, 0x1b, 0x45, 0x3e, 0x4c, 0x02, 0x92, 0xbe,
  0xf0, 0x33, 0x36, 0xbe, 0x95, 0xb0, 0x19, 0x3e, 0xae, 0x9f, 0x85, 0x3e,
  0x49, 0x12, 0x16, 0xbf, 0xc3, 0x89, 0x43, 0x3d, 0x32, 0xba, 0x6c, 0xbd,
  0x75, 0xc5, 0xeb, 0x3e, 0x92, 0xf1, 0x1d, 0x3e, 0x2d, 0x4c, 0x75, 0x3c,
  0xa6, 0x59, 0xf9, 0xbc, 0x2f, 0xfa, 0x71, 0x3d, 0x98, 0xf3, 0xbf, 0x3d,
  0xdc, 0xd5, 0x4a, 0xbd, 0xa9, 0x1b, 0x00, 0x3d, 0x7f, 0x6d, 0x0e, 0x3e,
  0x26, 0x39, 0x33, 0xbd, 0xdb, 0xb7, 0xf5, 0x3d, 0x9e, 0x44, 0xc2, 0x3d,
  0x3a, 0x64, 0x4e, 0x3e, 0x08, 0x8b, 0xdd, 0xbd, 0xbb, 0xfe, 0x84, 0xbd,
  0x6e, 0x45, 0xd0, 0xbd, 0x58, 0x66, 0xa7, 0xbe, 0x39, 0x8f, 0x74, 0xbe,
  0xc8, 0x35, 0x3e, 0xbe, 0x78, 0x8c, 0x08, 0xbd, 0xce, 0x0d, 0x36, 0x3e,
  0xe9, 0x81, 0xa4, 0xbd, 0x77, 0x2e, 0x4a, 0xbe, 0x71, 0x06, 0xf4, 0xbe,
  0xf5, 0x49, 0xcb, 0xbd, 0xd6, 0xe7, 0x24, 0x3e, 0x06, 0x74, 0x15, 0xbd,
  0x2f, 0x26, 0x40, 0xbe, 0xbe, 0xce, 0x96, 0xbe, 0x7b, 0x12, 0x91, 0x3d,
  0x59, 0x7a, 0x8b, 0x3c, 0x5f, 0x82, 0xc5, 0x3d, 0x81, 0xda, 0x2b, 0xbe,
  0x1d, 0xcf, 0xfe, 0xbd, 0x6b, 0xf6, 0x2d, 0x3e, 0x9f, 0xeb, 0xf6, 0x3d,
  0x74, 0xaf, 0x56, 0x3e, 0x47, 0xcf, 0x91, 0xbd, 0x4c, 0x96, 0x9b, 0x3d,
  0x49, 0x42, 0x77, 0x3d, 0x7c, 0xf8, 0xa7, 0x3d, 0xad, 0xb7, 0x07, 0x3e,
  0x05, 0x12, 0x5e, 0xbd, 0x78, 0xcb, 0x10, 0x3d, 0xc3, 0xe3, 0x93, 0x3e,
  0xe0, 0x48, 0x7c, 0x3e, 0x3c, 0x20, 0x96, 0xbd, 0x14, 0x5d, 0x46, 0x3d,
  0xe0, 0xd1, 0x0b, 0xbe, 0x77, 0xbe, 0x72, 0x3e, 0x80, 0xd6, 0x84, 0x3e,
  0x7b, 0x0b, 0x2b, 0x3d, 0xfd, 0x6a, 0xc7, 0x3e, 0x06, 0x9c, 0x86, 0x3c,
  0x48, 0x94, 0x80, 0x3d, 0xd8, 0x77, 0x9f, 0xbd, 0x2b, 0x6f, 0xb9, 0xbc,
  0x60, 0x6b, 0xfe, 0x3c, 0xa9, 0xe6, 0x24, 0xbe, 0x69, 0xef, 0xd0, 0xbb,
  0x49, 0x78, 0xd3, 0xbd, 0xa5, 0x04, 0x31, 0x3d, 0x9b, 0x66, 0xe4, 0x3d,
  0x83, 0x9e, 0x43, 0x3e, 0x4b, 0x22, 0x77, 0xbe, 0x00, 0x4e, 0xbd, 0x3c,
  0xf0, 0xcf, 0xd4, 0x3d, 0x12, 0x0d, 0x9f, 0xbc, 0xb6, 0xb5, 0x7f, 0x3e,
  0x38, 0xb7, 0x00, 0xbe, 0x36, 0x1b, 0x37, 0x3d, 0x3f, 0x47, 0xa3, 0xbe,
  0x4c, 0x76, 0x39, 0x3e, 0xc7, 0x4d, 0xfa, 0x3d, 0x56, 0x12, 0x89, 0xbd,
  0xdf, 0xbc, 0x2f, 0x3d, 0xda, 0x26, 0x63, 0xbe, 0xd2, 0x5a, 0x2f, 0x3b,
  0x78, 0x37, 0x6a, 0x3d, 0x69, 0x1e, 0xcf, 0x3d, 0x34, 0x2a, 0x66, 0xbe,
  0x69, 0x99, 0x3b, 0x3e, 0xab, 0x58, 0x8b, 0x3e, 0xec, 0x02, 0x1c, 0xbe,
  0x33, 0x5f, 0x48, 0x3e, 0xbc, 0xf1, 0x03, 0xbe, 0x43, 0xf6, 0xba, 0xbd,
  0x60, 0x82, 0x17, 0xbe, 0x29, 0x27, 0x15, 0xbe, 0x65, 0x30, 0x23, 0x3e,
  0xbf, 0x53, 0xbe, 0xbd, 0x5a, 0x01, 0x83, 0xbd, 0xdc, 0xe9, 0x95, 0x3d,
  0xe5, 0x14, 0xa1, 0x3e, 0xa9, 0xfc, 0x9d, 0xbd, 0xd9, 0x47, 0xf0, 0x3d,
  0x66, 0xf9, 0x84, 0xbc, 0x0b, 0xc0, 0xf6, 0x3d, 0xfe, 0x6b, 0x03, 0x3d,
  0xb6, 0xe6, 0x54, 0x3e, 0xcd, 0xdb, 0xb9, 0x3e, 0x11, 0x13, 0x79, 0x3c,
  0x12, 0xab, 0x5e, 0xbd, 0xe3, 0x02, 0x8a, 0x3c, 0x83, 0xbf, 0xb4, 0x3d,
  0xe5, 0x83, 0x23, 0x3d, 0xe9, 0xa2, 0x84, 0xbd, 0xf2, 0x3e, 0x8e, 0xbd,
  0x83, 0x5e, 0x2f, 0xbe, 0x6e, 0x06, 0x9d, 0x3e, 0xe0, 0xae, 0x3f, 0xbe,
  0x71, 0xeb, 0x6f, 0x3c, 0xd7, 0x40, 0x94, 0x3e, 0xfb, 0x80, 0xa2, 0x3c,
  0xfc, 0xd9, 0x18, 0x3e, 0xf7, 0x2c, 0xca, 0x3c, 0x26, 0xab, 0x7a, 0xbe,
  0xf4, 0x52, 0xa5, 0xbe, 0x6e, 0x94, 0x09, 0xbe, 0x2b, 0xe9, 0xe7, 0xbd,
  0x4a, 0xe8, 0x0d, 0x3c, 0xcd, 0x7c, 0x97, 0xbd, 0x77, 0x3d, 0x97, 0xbc,
  0x14, 0x88, 0x74, 0xbe, 0x87, 0x3b, 0xb4, 0xbd, 0x97, 0x32, 0x10, 0x3e,
  0x48, 0x34, 0x18, 0x3e, 0xd9, 0x6a, 0x75, 0xbe, 0x78, 0x33, 0xb1, 0x3e,
  0xa1, 0x5f, 0x21, 0x3e, 0x6b, 0x9d, 0x2c, 0x3e, 0x15, 0xa9, 0xea, 0xbe,
  0x20, 0x88, 0xd7, 0xbe, 0xd4, 0xb6, 0x8f, 0x3c, 0x1d, 0x8e, 0x3c, 0xbe,
  0x33, 0x38, 0x81, 0x3d, 0x9d, 0xec, 0xca, 0xbd, 0x23, 0x49, 0x9f, 0xbd,
  0x9e, 0xb3, 0xc0, 0x3d, 0x36, 0x08, 0x08, 0xbf, 0x4f, 0x44, 0xe4, 0x3e,
  0xe5, 0x56, 0xa6, 0xbe, 0xa0, 0x82, 0x20, 0x3e, 0x9d, 0x30, 0xb0, 0xbe,
  0x6b, 0x36, 0xce, 0x3e, 0x1f, 0x5e, 0x82, 0xbe, 0xc1, 0xa6, 0xf6, 0x3e,
  0xe1, 0x8e, 0xc4, 0xbe, 0xab, 0x7b, 0x0c, 0xbe, 0xe2, 0xa9, 0x3c, 0x3d,
  0xe2, 0xf9, 0x89, 0x3d, 0x37, 0x61, 0xb3, 0x3d, 0x66, 0x10, 0x84, 0xbe,
  0xb8, 0x57, 0xe8, 0x3d, 0xd1, 0xa2, 0xdf, 0xbb, 0x1d, 0x08, 0x53, 0xbe,
  0x3b, 0x17, 0xa7, 0x3e, 0xa5, 0x8e, 0xce, 0xbe, 0xc3, 0x09, 0x0c, 0x3e,
  0x0b, 0x22, 0x93, 0xbe, 0x75, 0xd3, 0x26, 0x3e, 0x6a, 0x4e, 0x31, 0xbe,
  0x40, 0x89, 0x6d, 0x3e, 0x0f, 0x05, 0x88, 0xbe, 0x13, 0xca, 0x2c, 0xbe,
  0x08, 0xc5, 0xd7, 0x3d, 0x2d, 0x69, 0x76, 0x3e, 0x33, 0x5d, 0x56, 0x3d,
  0x40, 0xc8, 0xa3, 0xbe, 0x34, 0x95, 0x74, 0x3e, 0xbf, 0x50, 0xd5, 0x3c,
  0xfe, 0xdc, 0xa3, 0xbe, 0x05, 0xa3, 0x96, 0x3e, 0xdc, 0x36, 0x0d, 0xbf,
  0xe5, 0x61, 0x04, 0x3e, 0x02, 0xfb, 0x43, 0xbe, 0x57, 0xc7, 0xe3, 0xbb,
  0xfe, 0xd3, 0x95, 0xbe, 0xf3, 0xbf, 0x0c, 0x3e, 0x10, 0x57, 0x93, 0xbd,
  0xf6, 0x68, 0x91, 0xbd, 0xca, 0x64, 0xad, 0xbd, 0x09, 0x9a, 0x54, 0x3e,
  0xb2, 0xf7, 0x86, 0xbc, 0x2a, 0x0b, 0x91, 0x3e, 0xa0, 0x5c, 0x0f, 0x3e,
  0x9f, 0x04, 0xc8, 0x3d, 0xba, 0x92, 0x50, 0xbd, 0x08, 0xd6, 0xc7, 0x3e,
  0x54, 0xaf, 0xb9, 0xbc, 0xca, 0x08, 0xd3, 0x3d, 0x41, 0x73, 0x91, 0xbe,
  0x15, 0x44, 0x7e, 0x3e, 0x72, 0x13, 0x6d, 0xbb, 0x92, 0x98, 0x31, 0x3e,
  0x5b, 0x26, 0xc6, 0xbe, 0x94, 0x55, 0xb0, 0xbd, 0x70, 0xab, 0x23, 0xbe,
  0x46, 0x8b, 0x1e, 0x3e, 0x7d, 0x81, 0xbe, 0x3d, 0x86, 0x70, 0x61, 0xbe,
  0x55, 0x9b, 0x84, 0xbc, 0x14, 0x4f, 0x99, 0x3b, 0x91, 0x5e, 0xac, 0xbe,
  0xf8, 0x32, 0x4e, 0x3e, 0x1d, 0x49, 0xcf, 0xbc, 0xaf, 0x7b, 0x02, 0x3c,
  0xab, 0x9b, 0x07, 0xbf, 0xd8, 0x60, 0x82, 0x3e, 0x04, 0x40, 0x06, 0xbe,
  0x4c, 0x60, 0xc3, 0x3e, 0x47, 0x71, 0x07, 0xbf, 0xca, 0xfb, 0x12, 0xbe,
  0x75, 0x27, 0x99, 0xbd, 0x99, 0xd3, 0xac, 0xbc, 0x90, 0x53, 0xee, 0x3d,
  0xc4, 0x88, 0xbc, 0xbe, 0x1d, 0x6d, 0x0c, 0x3d, 0x83, 0x18, 0x5e, 0x3d,
  0x16, 0x8a, 0xc4, 0xbd, 0x92, 0x07, 0x19, 0x3e, 0x65, 0x5b, 0xa0, 0xbc,
  0x96, 0x23, 0xab, 0xbd, 0x1d, 0xb1, 0x97, 0xbe, 0x2c, 0xaf, 0x8f, 0xbb,
  0x6e, 0x77, 0x93, 0xbd, 0x4d, 0x8a, 0x2d, 0x3e, 0xc1, 0x3d, 0x19, 0xbf,
  0xe5, 0x9e, 0x13, 0xbe, 0xfa, 0x71, 0x7d, 0xbe, 0x2e, 0x82, 0x13, 0xbe,
  0xec, 0xe5, 0xa3, 0xbd, 0x9d, 0x26, 0x81, 0xbe, 0x4e, 0x30, 0x19, 0x3d,
  0xeb, 0x06, 0x36, 0x3d, 0x72, 0x65, 0xf3, 0x3c, 0x65, 0xb7, 0x4c, 0x3e,
  0x4c, 0x3e, 0x2f, 0xbc, 0xac, 0x72, 0x4f, 0x3d, 0xf0, 0x4e, 0x2f, 0xbf,
  0xb2, 0x8b, 0x06, 0x3f, 0x24, 0x9b, 0x10, 0x3e, 0x4a, 0xfb, 0x26, 0x3e,
  0x21, 0x96, 0x1a, 0xbf, 0x64, 0xd0, 0x4d, 0xbe, 0x97, 0x1e, 0x94, 0xbe,
  0xf0, 0x77, 0xe5, 0x3d, 0xa3, 0x6b, 0x61, 0x3d, 0xb8, 0x3f, 0xeb, 0x3c,
  0x0e, 0x53, 0x05, 0x3e, 0x2a, 0xff, 0x98, 0x3d, 0xa9, 0x39, 0x2f, 0xbf,
  0xab, 0x8a, 0x37, 0x3e, 0x3e, 0x58, 0xbf, 0xbc, 0xd6, 0x97, 0x87, 0x3c,
  0x27, 0x74, 0x9d, 0xbe, 0x1a, 0x9a, 0xa0, 0x3e, 0x2d, 0xc9, 0x9f, 0x3e,
  0xcb, 0x4a, 0x8e, 0x3e, 0x9f, 0x87, 0x1e, 0xbd, 0x90, 0x6a, 0xc4, 0x3d,
  0x4e, 0x6f, 0x2e, 0xbe, 0xfe, 0xd5, 0xdb, 0xbd, 0x59, 0xc4, 0x83, 0x3d,
  0xd0, 0x9b, 0xdb, 0xbc, 0x0a, 0x3b, 0x98, 0x3d, 0x3d, 0xf7, 0x1a, 0x3c,
  0x32, 0xa1, 0xc2, 0xbe, 0x2f, 0x09, 0xa0, 0xbe, 0x0f, 0xf5, 0x08, 0x3e,
  0xca, 0x9e, 0xd4, 0x3c, 0x34, 0x72, 0x07, 0xbf, 0xa9, 0x5a, 0x7e, 0x3d,
  0xce, 0xa6, 0xf0, 0x3d, 0xb2, 0x3c, 0x13, 0x3e, 0xc0, 0x0a, 0x0a, 0xbe,
  0xbf, 0x7b, 0x5a, 0x3e, 0xc1, 0x0c, 0x0c, 0xbe, 0x6c, 0x0e, 0xd3, 0xbd,
  0xb1, 0x6c, 0xae, 0xbd, 0x04, 0x1a, 0x3f, 0x3e, 0x5d, 0x4c, 0x81, 0x39,
  0x02, 0xfe, 0xbc, 0xbb, 0x9c, 0x1f, 0xbf, 0xbe, 0xa6, 0xd3, 0x27, 0xbe,
  0xcf, 0xf6, 0x4e, 0xbd, 0xb9, 0xd0, 0x19, 0x3e, 0x2e, 0x48, 0xec, 0xbe,
  0x9a, 0x65, 0x3b, 0xbd, 0x82, 0xb0, 0xd1, 0x3d, 0x7d, 0xba, 0x3f, 0x3e,
  0x67, 0x27, 0x1c, 0xbd, 0x10, 0x98, 0x73, 0x3d, 0x91, 0x2d, 0x21, 0xbe,
  0xc8, 0xd5, 0x85, 0x3d, 0x80, 0xdb, 0x4e, 0x39, 0x92, 0xa8, 0x87, 0x3e,
  0x1e, 0x30, 0x85, 0x3e, 0x97, 0x69, 0xec, 0xbb, 0xb3, 0xdf, 0xd2, 0xbd,
  0x3b, 0xdc, 0x8b, 0xbe, 0xfb, 0xf6, 0xd6, 0x3d, 0x38, 0xfe, 0x8c, 0x3d,
  0xb3, 0xd6, 0xd1, 0xbe, 0xc0, 0xa1, 0xbd, 0xbc, 0x8b, 0xe8, 0x23, 0x3e,
  0xd4, 0x3b, 0x0d, 0x3d, 0x5b, 0x52, 0x1a, 0xbe, 0x00, 0x78, 0x02, 0x3e,
  0x97, 0x8f, 0xc2, 0xbe, 0xdd, 0x5e, 0xc7, 0x3c, 0xc9, 0xe5, 0xce, 0xbd,
  0x5c, 0xb1, 0xf4, 0xbd, 0x79, 0x3c, 0xad, 0x3e, 0x6b, 0x8e, 0xf7, 0x3c,
  0xc3, 0x57, 0x98, 0xbe, 0xf6, 0x65, 0x24, 0x3d, 0x16, 0x5f, 0xb1, 0x3e,
  0xae, 0xbf, 0xcc, 0x3c, 0x11, 0x65, 0xbc, 0xbe, 0x6f, 0x91, 0xeb, 0xbd,
  0x8b, 0x0b, 0x32, 0x3e, 0x2f, 0xe9, 0xb6, 0x3d, 0x32, 0x56, 0x9c, 0xbd,
  0x79, 0x58, 0xda, 0x3d, 0x33, 0xff, 0x9a, 0xbe, 0x22, 0x1e, 0x86, 0xbd,
  0x0f, 0x7a, 0xc3, 0xbd, 0xa5, 0x72, 0xbf, 0xbc, 0x9c, 0x19, 0xb3, 0x3e,
  0x31, 0xbd, 0x84, 0x3b, 0xf8, 0x95, 0x9a, 0xbe, 0xed, 0xad, 0x2f, 0x3e,
  0x8f, 0xc1, 0xa3, 0x3e, 0x90, 0x70, 0x5d, 0xbc, 0x27, 0x88, 0x27, 0xbe,
  0x20, 0x75, 0x1c, 0xbf, 0xf9, 0xd7, 0x24, 0xbd, 0x23, 0x90, 0x62, 0x3e,
  0x29, 0xb9, 0x2f, 0xbe, 0xd6, 0x5c, 0x02, 0x3e, 0xc3, 0xb4, 0xfb, 0xbc,
  0x75, 0xe1, 0x82, 0xbb, 0x06, 0x9a, 0x0a, 0xbe, 0xc9, 0xfe, 0x69, 0xbc,
  0x1a, 0x68, 0xcf, 0x3d, 0xf5, 0x31, 0x7b, 0x3d, 0x68, 0xeb, 0x33, 0xbe,
  0x4e, 0x2e, 0x8b, 0x3e, 0x43, 0xd0, 0xc3, 0x3d, 0xe8, 0x6b, 0x8b, 0xbe,
  0x67, 0xa4, 0x67, 0xbe, 0x7a, 0xeb, 0x64, 0xbd, 0x00, 0x59, 0x33, 0xbc,
  0x33, 0x83, 0x83, 0xbe, 0x2f, 0xa8, 0x08, 0x3d, 0x8c, 0x21, 0x1c, 0xbe,
  0xb4, 0x43, 0xb0, 0xbd, 0xf1, 0xc3, 0x8d, 0xbe, 0x10, 0xb9, 0x07, 0xbe,
  0x1c, 0xeb, 0x40, 0xbe, 0xcf, 0xcc, 0xe5, 0xbc, 0x09, 0xdd, 0x61, 0xbd,
  0x5e, 0xa3, 0x08, 0xbe, 0xc0, 0x34, 0xe6, 0xbd, 0x17, 0xf0, 0x2b, 0xbd,
  0xe8, 0x2d, 0xc3, 0xbd, 0xb9, 0x8e, 0xe0, 0xbd, 0xe3, 0xcb, 0x81, 0x3d,
  0xa3, 0xc3, 0x52, 0xbe, 0x02, 0x74, 0xd4, 0x3d, 0x08, 0xe9, 0x48, 0xbc,
  0xd5, 0xb6, 0x5a, 0xbe, 0x3b, 0x9f, 0xb2, 0xbd, 0xa7, 0xf5, 0x3d, 0x3d,
  0x43, 0x17, 0x5c, 0xbb, 0xb8, 0x44, 0x0c, 0xbe, 0x6a, 0x17, 0x92, 0xbd,
  0x80, 0x8f, 0xc3, 0xbd, 0xb5, 0x2a, 0x97, 0x3d, 0x55, 0xf7, 0x53, 0x3c,
  0xcb, 0xd7, 0xd8, 0x3d, 0xea, 0x7e, 0x07, 0xbe, 0xc2, 0x58, 0x8d, 0x3d,
  0x0a, 0xce, 0xe5, 0x3d, 0x92, 0x21, 0x8d, 0xbe, 0x64, 0x8e, 0xd7, 0xbd,
  0x36, 0xe2, 0x52, 0x3c, 0xa0, 0x13, 0x73, 0xbd, 0x24, 0xf1, 0x2c, 0x3e,
  0x34, 0xf6, 0x60, 0xbe, 0xfb, 0x59, 0x6c, 0xbe, 0x8f, 0xdc, 0x96, 0xbc,
  0xda, 0x8f, 0x77, 0xbd, 0xb4, 0x00, 0x7b, 0x3c, 0x9e, 0xcf, 0x61, 0xbe,
  0xfd, 0xab, 0xea, 0x3d, 0x34, 0x00, 0x0f, 0xbe, 0xb3, 0x56, 0x96, 0xbc,
  0x9c, 0x97, 0x84, 0xbd, 0x9e, 0x37, 0xb9, 0xbd, 0x25, 0x5c, 0x89, 0xbe,
  0x9d, 0xf5, 0x0b, 0x3e, 0x70, 0xa3, 0x03, 0x3d, 0x19, 0x6d, 0x04, 0x3e,
  0xd5, 0xa1, 0x1f, 0xbe, 0xcd, 0x9d, 0x8f, 0x3d, 0x47, 0x2f, 0xed, 0x39,
  0x97, 0x34, 0x46, 0xbe, 0x43, 0xeb, 0x90, 0x3d, 0x31, 0xf9, 0xb0, 0xbd,
  0xa1, 0x27, 0x6d, 0xbe, 0x44, 0x23, 0xbf, 0xbd, 0x0b, 0xda, 0x21, 0x3e,
  0xe6, 0x24, 0x48, 0xbe, 0x4e, 0x16, 0xa4, 0x3c, 0xc7, 0x06, 0xb8, 0xbd,
  0x1d, 0x67, 0x33, 0xbe, 0x91, 0x01, 0x7a, 0xbe, 0x12, 0x87, 0x69, 0xbd,
  0x75, 0x7e, 0xc2, 0xbd, 0xfa, 0x0d, 0x71, 0xbe, 0xa7, 0xc9, 0x35, 0xbb,
  0x89, 0x7b, 0x1a, 0xbc, 0xe3, 0xfd, 0xd6, 0x3d, 0xc2, 0x79, 0x32, 0xbe,
  0xa5, 0xb5, 0x01, 0x3d, 0xc4, 0x29, 0x1f, 0xbd, 0x31, 0x20, 0xb9, 0x3c,
  0x6c, 0xbe, 0x4d, 0xbc, 0x9d, 0x0a, 0x23, 0xbe, 0x6e, 0xc3, 0xd0, 0xbc,
  0xac, 0x99, 0x8e, 0xbd, 0x3d, 0xc6, 0x67, 0xbe, 0x20, 0x8d, 0xac, 0x3d,
  0x1e, 0x5e, 0x6b, 0x3d, 0xa1, 0x5f, 0x5b, 0xbe, 0x42, 0xb1, 0x7a, 0x3d,
  0x71, 0x36, 0xc1, 0xbd, 0x49, 0x10, 0x34, 0xbe, 0x29, 0x14, 0x41, 0xbe,
  0x6d, 0xd9, 0xcc, 0xbd, 0x7e, 0xe9, 0xea, 0xbd, 0x04, 0xbe, 0x3b, 0xbe,
  0xb0, 0x34, 0x02, 0xbe, 0xf0, 0x50, 0x7f, 0x3d, 0x75, 0x9c, 0xf6, 0xbd,
  0xde, 0xcc, 0x70, 0xbe, 0xb5, 0xbe, 0x9a, 0x3c, 0x47, 0x2f, 0xd5, 0xbb,
  0x1c, 0xc5, 0x8d, 0xbc, 0x6c, 0x22, 0x05, 0xbe, 0xc2, 0x55, 0x6a, 0xbc,
  0xad, 0x46, 0x44, 0xbb, 0xe8, 0xa5, 0xc3, 0xbc, 0x43, 0x02, 0xa3, 0x3d,
  0xba, 0xb9, 0x7c, 0xbe, 0xdc, 0xa4, 0x59, 0xbe, 0xed, 0xdb, 0x8a, 0xbe,
  0xbc, 0xbe, 0x82, 0xbd, 0xaa, 0xe7, 0xfd, 0xbd, 0x64, 0x5d, 0xb9, 0x3d,
  0x46, 0xfe, 0xff, 0xff, 0x10, 0x00, 0x00, 0x00, 0x05, 0x00, 0x00, 0x00,
  0x14, 0x00, 0x00, 0x00, 0x2c, 0x00, 0x00, 0x00, 0x02, 0x00, 0x00, 0x00,
  0x10, 0x00, 0x00, 0x00, 0x70, 0x00, 0x00, 0x00, 0x17, 0x00, 0x00, 0x00,
  0x73, 0x65, 0x71, 0x75, 0x65, 0x6e, 0x74, 0x69, 0x61, 0x6c, 0x2f, 0x64,
  0x65, 0x6e, 0x73, 0x65, 0x2f, 0x4d, 0x61, 0x74, 0x4d, 0x75, 0x6c, 0x00,
  0x34, 0xfe, 0xff, 0xff, 0x2a, 0xff, 0xff, 0xff, 0x04, 0x00, 0x00, 0x00,
  0x08, 0x00, 0x00, 0x00, 0xff, 0xff, 0xff, 0xff, 0x70, 0x00, 0x00, 0x00,
  0x00, 0x00, 0x0e, 0x00, 0x18, 0x00, 0x08, 0x00, 0x07, 0x00, 0x0c, 0x00,
  0x10, 0x00, 0x14, 0x00, 0x0e, 0x00, 0x00, 0x00, 0x00, 0x00, 0x00, 0x02,
  0x10, 0x00, 0x00, 0x00, 0x04, 0x00, 0x00, 0x00, 0x10, 0x00, 0x00, 0x00,
  0x2c, 0x00, 0x00, 0x00, 0x01, 0x00, 0x00, 0x00, 0x02, 0x00, 0x00, 0x00,
  0x18, 0x00, 0x00, 0x00, 0x73, 0x65, 0x71, 0x75, 0x65, 0x6e, 0x74, 0x69,
  0x61, 0x6c, 0x2f, 0x66, 0x6c, 0x61, 0x74, 0x74, 0x65, 0x6e, 0x2f, 0x43,
  0x6f, 0x6e, 0x73, 0x74, 0x00, 0x00, 0x00, 0x00, 0x9c, 0xfe, 0xff, 0xff,
  0x92, 0xff, 0xff, 0xff, 0x04, 0x00, 0x00, 0x00, 0x10, 0x00, 0x00, 0x00,
  0x71, 0x43, 0x6c, 0xbf, 0xad, 0x49, 0x39, 0x40, 0xa5, 0x57, 0x32, 0xc0,
  0xbe, 0xbf, 0x93, 0xbf, 0x0a, 0xff, 0xff, 0xff, 0x10, 0x00, 0x00, 0x00,
  0x03, 0x00, 0x00, 0x00, 0x10, 0x00, 0x00, 0x00, 0x3c, 0x00, 0x00, 0x00,
  0x01, 0x00, 0x00, 0x00, 0x04, 0x00, 0x00, 0x00, 0x29, 0x00, 0x00, 0x00,
  0x73, 0x65, 0x71, 0x75, 0x65, 0x6e, 0x74, 0x69, 0x61, 0x6c, 0x2f, 0x64,
  0x65, 0x6e, 0x73, 0x65, 0x5f, 0x31, 0x2f, 0x42, 0x69, 0x61, 0x73, 0x41,
  0x64, 0x64, 0x2f, 0x52, 0x65, 0x61, 0x64, 0x56, 0x61, 0x72, 0x69, 0x61,
  0x62, 0x6c, 0x65, 0x4f, 0x70, 0x00, 0x00, 0x00, 0x60, 0xff, 0xff, 0xff,
  0x00, 0x00, 0x06, 0x00, 0x08, 0x00, 0x04, 0x00, 0x06, 0x00, 0x00, 0x00,
  0x04, 0x00, 0x00, 0x00, 0x40, 0x00, 0x00, 0x00, 0xc5, 0x1f, 0x98, 0xbe,
  0x4f, 0x1e, 0xda, 0x3d, 0xb5, 0x08, 0xc3, 0x3e, 0xe8, 0x8e, 0x21, 0x3f,
  0xf2, 0xfa, 0x3e, 0xbe, 0xdf, 0x16, 0x8d, 0x3f, 0xcb, 0x7f, 0x95, 0x3e,
  0xbb, 0x53, 0xfe, 0xbe, 0x46, 0x2a, 0xcc, 0xbe, 0xd8, 0xd5, 0x4f, 0xbf,
  0xa1, 0xed, 0x84, 0x3f, 0xd0, 0xbd, 0xa8, 0x3f, 0xb1, 0x0a, 0x0c, 0xbf,
  0x50, 0xaf, 0xa3, 0x3d, 0x6f, 0x0f, 0xc3, 0x3f, 0xe3, 0x4a, 0x70, 0xbe,
  0xae, 0xff, 0xff, 0xff, 0x10, 0x00, 0x00, 0x00, 0x02, 0x00, 0x00, 0x00,
  0x10, 0x00, 0x00, 0x00, 0x3c, 0x00, 0x00, 0x00, 0x01, 0x00, 0x00, 0x00,
  0x10, 0x00, 0x00, 0x00, 0x27, 0x00, 0x00, 0x00, 0x73, 0x65, 0x71, 0x75,
  0x65, 0x6e, 0x74, 0x69, 0x61, 0x6c, 0x2f, 0x64, 0x65, 0x6e, 0x73, 0x65,
  0x2f, 0x42, 0x69, 0x61, 0x73, 0x41, 0x64, 0x64, 0x2f, 0x52, 0x65, 0x61,
  0x64, 0x56, 0x61, 0x72, 0x69, 0x61, 0x62, 0x6c, 0x65, 0x4f, 0x70, 0x00,
  0x04, 0x00, 0x06, 0x00, 0x04, 0x00, 0x00, 0x00, 0x00, 0x00, 0x0e, 0x00,
  0x14, 0x00, 0x04, 0x00, 0x00, 0x00, 0x08, 0x00, 0x0c, 0x00, 0x10, 0x00,
  0x0e, 0x00, 0x00, 0x00, 0x10, 0x00, 0x00, 0x00, 0x01, 0x00, 0x00, 0x00,
  0x1c, 0x00, 0x00, 0x00, 0x2c, 0x00, 0x00, 0x00, 0x04, 0x00, 0x00, 0x00,
  0x01, 0x00, 0x00, 0x00, 0x40, 0x00, 0x00, 0x00, 0x03, 0x00, 0x00, 0x00,
  0x01, 0x00, 0x00, 0x00, 0x0c, 0x00, 0x00, 0x00, 0x63, 0x6f, 0x6e, 0x76,
  0x32, 0x64, 0x5f, 0x69, 0x6e, 0x70, 0x75, 0x74, 0x00, 0x00, 0x00, 0x00,
  0xfc, 0xff, 0xff, 0xff, 0x04, 0x00, 0x04, 0x00, 0x04, 0x00, 0x00, 0x00
};

unsigned int model_tflite_len = 12384;// Fill the int in `src/model.cc` here