unsigned char _content_mbed07_model_model_tflite[] = {
  0x08, 0x00, 0x00, 0x00, 0x54, 0x46, 0x4c, 0x33, 0x62, 0xff, 0xff, 0xff,
  0x03, 0x00, 0x00, 0x00, 0x10, 0x00, 0x00, 0x00, 0x24, 0x00, 0x00, 0x00,
  0x78, 0x00, 0x00, 0x00, 0x24, 0x00, 0x00, 0x00, 0x05, 0x00, 0x00, 0x00,
  0x78, 0x05, 0x00, 0x00, 0xb0, 0x04, 0x00, 0x00, 0xe0, 0x02, 0x00, 0x00,
  0x60, 0x02, 0x00, 0x00, 0x54, 0x01, 0x00, 0x00, 0x01, 0x00, 0x00, 0x00,
  0x78, 0x00, 0x00, 0x00, 0x13, 0x00, 0x00, 0x00, 0xd4, 0x2f, 0x00, 0x00,
  0xd0, 0x2f, 0x00, 0x00, 0xdc, 0x2e, 0x00, 0x00, 0x68, 0x2e, 0x00, 0x00,
  0xfc, 0x2d, 0x00, 0x00, 0xac, 0x11, 0x00, 0x00, 0x98, 0x10, 0x00, 0x00,
  0xbc, 0x0e, 0x00, 0x00, 0x60, 0x06, 0x00, 0x00, 0xfc, 0x05, 0x00, 0x00,
  0x78, 0x05, 0x00, 0x00, 0xa8, 0x2f, 0x00, 0x00, 0xa4, 0x2f, 0x00, 0x00,
  0xa0, 0x2f, 0x00, 0x00, 0x9c, 0x2f, 0x00, 0x00, 0x98, 0x2f, 0x00, 0x00,
  0x94, 0x2f, 0x00, 0x00, 0x90, 0x2f, 0x00, 0x00, 0x8c, 0x2f, 0x00, 0x00,
  0x0f, 0x00, 0x00, 0x00, 0x4d, 0x4c, 0x49, 0x52, 0x20, 0x43, 0x6f, 0x6e,
  0x76, 0x65, 0x72, 0x74, 0x65, 0x64, 0x2e, 0x00, 0x00, 0x00, 0x0e, 0x00,
  0x18, 0x00, 0x04, 0x00, 0x08, 0x00, 0x0c, 0x00, 0x10, 0x00, 0x14, 0x00,
  0x0e, 0x00, 0x00, 0x00, 0x14, 0x00, 0x00, 0x00, 0x5c, 0x00, 0x00, 0x00,
  0x60, 0x00, 0x00, 0x00, 0x64, 0x00, 0x00, 0x00, 0x84, 0x00, 0x00, 0x00,
  0x12, 0x00, 0x00, 0x00, 0x04, 0x2f, 0x00, 0x00, 0xa0, 0x2e, 0x00, 0x00,
  0xf8, 0x2d, 0x00, 0x00, 0x98, 0x2d, 0x00, 0x00, 0x30, 0x2d, 0x00, 0x00,
  0xdc, 0x10, 0x00, 0x00, 0xc0, 0x0f, 0x00, 0x00, 0xe4, 0x0d, 0x00, 0x00,
  0xa0, 0x05, 0x00, 0x00, 0x3c, 0x05, 0x00, 0x00, 0xb0, 0x04, 0x00, 0x00,
  0xe8, 0x03, 0x00, 0x00, 0x38, 0x03, 0x00, 0x00, 0xa4, 0x02, 0x00, 0x00,
  0x10, 0x02, 0x00, 0x00, 0x90, 0x01, 0x00, 0x00, 0xfc, 0x00, 0x00, 0x00,
  0x80, 0x00, 0x00, 0x00, 0x01, 0x00, 0x00, 0x00, 0x00, 0x00, 0x00, 0x00,
  0x01, 0x00, 0x00, 0x00, 0x11, 0x00, 0x00, 0x00, 0x08, 0x00, 0x00, 0x00,
  0x1c, 0x04, 0x00, 0x00, 0x58, 0x03, 0x00, 0x00, 0xc8, 0x02, 0x00, 0x00,
  0x24, 0x02, 0x00, 0x00, 0xac, 0x01, 0x00, 0x00, 0x10, 0x01, 0x00, 0x00,
  0x94, 0x00, 0x00, 0x00, 0x10, 0x00, 0x00, 0x00, 0x04, 0x00, 0x00, 0x00,
  0x6d, 0x61, 0x69, 0x6e, 0x00, 0x00, 0x00, 0x00, 0x8e, 0xff, 0xff, 0xff,
  0x00, 0x00, 0x00, 0x09, 0x04, 0x00, 0x00, 0x00, 0x1c, 0x00, 0x00, 0x00,
  0x10, 0x00, 0x00, 0x00, 0x04, 0x00, 0x00, 0x00, 0x4e, 0xd2, 0xff, 0xff,
  0x00, 0x00, 0x80, 0x3f, 0x01, 0x00, 0x00, 0x00, 0x11, 0x00, 0x00, 0x00,
  0x01, 0x00, 0x00, 0x00, 0x10, 0x00, 0x00, 0x00, 0xf6, 0xfb, 0xff, 0xff,
  0x00, 0x00, 0x00, 0x19, 0x01, 0x00, 0x00, 0x00, 0xce, 0xd1, 0xff, 0xff,
  0x10, 0x00, 0x00, 0x00, 0x12, 0x00, 0x00, 0x00, 0x14, 0x00, 0x00, 0x00,
  0x20, 0x00, 0x00, 0x00, 0x02, 0x00, 0x00, 0x00, 0x01, 0x00, 0x00, 0x00,
  0x03, 0x00, 0x00, 0x00, 0x08, 0x00, 0x00, 0x00, 0x49, 0x64, 0x65, 0x6e,
  0x74, 0x69, 0x74, 0x79, 0x00, 0x00, 0x00, 0x00, 0x08, 0xd2, 0xff, 0xff,
  0x00, 0x00, 0x0e, 0x00, 0x18, 0x00, 0x08, 0x00, 0x0c, 0x00, 0x10, 0x00,
  0x07, 0x00, 0x14, 0x00, 0x0e, 0x00, 0x00, 0x00, 0x00, 0x00, 0x00, 0x08,
  0x03, 0x00, 0x00, 0x00, 0x18, 0x00, 0x00, 0x00, 0x0c, 0x00, 0x00, 0x00,
  0x04, 0x00, 0x00, 0x00, 0xdc, 0xd1, 0xff, 0xff, 0x01, 0x00, 0x00, 0x00,
  0x10, 0x00, 0x00, 0x00, 0x03, 0x00, 0x00, 0x00, 0x0f, 0x00, 0x00, 0x00,
  0x05, 0x00, 0x00, 0x00, 0x02, 0x00, 0x00, 0x00, 0x46, 0xd2, 0xff, 0xff,
  0x10, 0x00, 0x00, 0x00, 0x11, 0x00, 0x00, 0x00, 0x14, 0x00, 0x00, 0x00,
  0x30, 0x00, 0x00, 0x00, 0x02, 0x00, 0x00, 0x00, 0x01, 0x00, 0x00, 0x00,
  0x03, 0x00, 0x00, 0x00, 0x1a, 0x00, 0x00, 0x00, 0x73, 0x65, 0x71, 0x75,
  0x65, 0x6e, 0x74, 0x69, 0x61, 0x6c, 0x2f, 0x64, 0x65, 0x6e, 0x73, 0x65,
  0x5f, 0x31, 0x2f, 0x42, 0x69, 0x61, 0x73, 0x41, 0x64, 0x64, 0x00, 0x00,
  0x38, 0xd2, 0xff, 0xff, 0xd6, 0xfd, 0xff, 0xff, 0x00, 0x00, 0x00, 0x08,
  0x03, 0x00, 0x00, 0x00, 0x24, 0x00, 0x00, 0x00, 0x18, 0x00, 0x00, 0x00,
  0x0c, 0x00, 0x00, 0x00, 0x00, 0x00, 0x06, 0x00, 0x08, 0x00, 0x07, 0x00,
  0x06, 0x00, 0x00, 0x00, 0x00, 0x00, 0x00, 0x01, 0x01, 0x00, 0x00, 0x00,
  0x0f, 0x00, 0x00, 0x00, 0x03, 0x00, 0x00, 0x00, 0x0e, 0x00, 0x00, 0x00,
  0x04, 0x00, 0x00, 0x00, 0x01, 0x00, 0x00, 0x00, 0xfe, 0xfc, 0xff, 0xff,
  0x00, 0x00, 0x00, 0x09, 0x01, 0x00, 0x00, 0x00, 0xd6, 0xd2, 0xff, 0xff,
  0x10, 0x00, 0x00, 0x00, 0x10, 0x00, 0x00, 0x00, 0x14, 0x00, 0x00, 0x00,
  0x2c, 0x00, 0x00, 0x00, 0x02, 0x00, 0x00, 0x00, 0x01, 0x00, 0x00, 0x00,
  0x10, 0x00, 0x00, 0x00, 0x15, 0x00, 0x00, 0x00, 0x73, 0x65, 0x71, 0x75,
  0x65, 0x6e, 0x74, 0x69, 0x61, 0x6c, 0x2f, 0x64, 0x65, 0x6e, 0x73, 0x65,
  0x2f, 0x52, 0x65, 0x6c, 0x75, 0x00, 0x00, 0x00, 0x1c, 0xd3, 0xff, 0xff,
  0x00, 0x00, 0x0a, 0x00, 0x10, 0x00, 0x04, 0x00, 0x08, 0x00, 0x0c, 0x00,
  0x0a, 0x00, 0x00, 0x00, 0x02, 0x00, 0x00, 0x00, 0x10, 0x00, 0x00, 0x00,
  0x04, 0x00, 0x00, 0x00, 0x01, 0x00, 0x00, 0x00, 0x0e, 0x00, 0x00, 0x00,
  0x02, 0x00, 0x00, 0x00, 0x0d, 0x00, 0x00, 0x00, 0x03, 0x00, 0x00, 0x00,
  0x7a, 0xfd, 0xff, 0xff, 0x00, 0x00, 0x00, 0x16, 0x01, 0x00, 0x00, 0x00,
  0x52, 0xd3, 0xff, 0xff, 0x10, 0x00, 0x00, 0x00, 0x0f, 0x00, 0x00, 0x00,
  0x14, 0x00, 0x00, 0x00, 0x30, 0x00, 0x00, 0x00, 0x02, 0x00, 0x00, 0x00,
  0x01, 0x00, 0x00, 0x00, 0x70, 0x00, 0x00, 0x00, 0x1a, 0x00, 0x00, 0x00,
  0x73, 0x65, 0x71, 0x75, 0x65, 0x6e, 0x74, 0x69, 0x61, 0x6c, 0x2f, 0x66,
  0x6c, 0x61, 0x74, 0x74, 0x65, 0x6e, 0x2f, 0x52, 0x65, 0x73, 0x68, 0x61,
  0x70, 0x65, 0x00, 0x00, 0x44, 0xd3, 0xff, 0xff, 0xe2, 0xfe, 0xff, 0xff,
  0x00, 0x00, 0x00, 0x05, 0x01, 0x00, 0x00, 0x00, 0x38, 0x00, 0x00, 0x00,
  0x2c, 0x00, 0x00, 0x00, 0x14, 0x00, 0x00, 0x00, 0x00, 0x00, 0x0e, 0x00,
  0x14, 0x00, 0x00, 0x00, 0x10, 0x00, 0x0c, 0x00, 0x08, 0x00, 0x04, 0x00,
  0x0e, 0x00, 0x00, 0x00, 0x03, 0x00, 0x00, 0x00, 0x01, 0x00, 0x00, 0x00,
  0x03, 0x00, 0x00, 0x00, 0x01, 0x00, 0x00, 0x00, 0x01, 0x00, 0x00, 0x00,
  0x0d, 0x00, 0x00, 0x00, 0x01, 0x00, 0x00, 0x00, 0x0c, 0x00, 0x00, 0x00,
  0xe2, 0xd3, 0xff, 0xff, 0x10, 0x00, 0x00, 0x00, 0x0e, 0x00, 0x00, 0x00,
  0x1c, 0x00, 0x00, 0x00, 0x40, 0x00, 0x00, 0x00, 0x04, 0x00, 0x00, 0x00,
  0x01, 0x00, 0x00, 0x00, 0x07, 0x00, 0x00, 0x00, 0x01, 0x00, 0x00, 0x00,
  0x10, 0x00, 0x00, 0x00, 0x22, 0x00, 0x00, 0x00, 0x73, 0x65, 0x71, 0x75,
  0x65, 0x6e, 0x74, 0x69, 0x61, 0x6c, 0x2f, 0x6d, 0x61, 0x78, 0x5f, 0x70,
  0x6f, 0x6f, 0x6c, 0x69, 0x6e, 0x67, 0x32, 0x64, 0x5f, 0x31, 0x2f, 0x4d,
  0x61, 0x78, 0x50, 0x6f, 0x6f, 0x6c, 0x00, 0x00, 0xe4, 0xd3, 0xff, 0xff,
  0xc2, 0xfe, 0xff, 0xff, 0x00, 0x00, 0x00, 0x01, 0x24, 0x00, 0x00, 0x00,
  0x18, 0x00, 0x00, 0x00, 0x04, 0x00, 0x00, 0x00, 0xb4, 0xfe, 0xff, 0xff,
  0x01, 0x00, 0x00, 0x00, 0x01, 0x00, 0x00, 0x00, 0x00, 0x00, 0x00, 0x01,
  0x01, 0x00, 0x00, 0x00, 0x0c, 0x00, 0x00, 0x00, 0x03, 0x00, 0x00, 0x00,
  0x0b, 0x00, 0x00, 0x00, 0x07, 0x00, 0x00, 0x00, 0x09, 0x00, 0x00, 0x00,
  0x72, 0xd4, 0xff, 0xff, 0x10, 0x00, 0x00, 0x00, 0x0d, 0x00, 0x00, 0x00,
  0x1c, 0x00, 0x00, 0x00, 0x2c, 0x00, 0x00, 0x00, 0x04, 0x00, 0x00, 0x00,
  0x01, 0x00, 0x00, 0x00, 0x15, 0x00, 0x00, 0x00, 0x01, 0x00, 0x00, 0x00,
  0x10, 0x00, 0x00, 0x00, 0x0c, 0x00, 0x00, 0x00, 0x74, 0x66, 0x6c, 0x2e,
  0x63, 0x6f, 0x6e, 0x76, 0x5f, 0x32, 0x64, 0x31, 0x00, 0x00, 0x00, 0x00,
  0xb8, 0xd4, 0xff, 0xff, 0x00, 0x00, 0x0e, 0x00, 0x1a, 0x00, 0x08, 0x00,
  0x0c, 0x00, 0x10, 0x00, 0x07, 0x00, 0x14, 0x00, 0x0e, 0x00, 0x00, 0x00,
  0x00, 0x00, 0x00, 0x05, 0x01, 0x00, 0x00, 0x00, 0x3c, 0x00, 0x00, 0x00,
  0x30, 0x00, 0x00, 0x00, 0x14, 0x00, 0x00, 0x00, 0x00, 0x00, 0x0e, 0x00,
  0x18, 0x00, 0x17, 0x00, 0x10, 0x00, 0x0c, 0x00, 0x08, 0x00, 0x04, 0x00,
  0x0e, 0x00, 0x00, 0x00, 0x03, 0x00, 0x00, 0x00, 0x03, 0x00, 0x00, 0x00,
  0x03, 0x00, 0x00, 0x00, 0x03, 0x00, 0x00, 0x00, 0x00, 0x00, 0x00, 0x01,
  0x01, 0x00, 0x00, 0x00, 0x0b, 0x00, 0x00, 0x00, 0x01, 0x00, 0x00, 0x00,
  0x0a, 0x00, 0x00, 0x00, 0x46, 0xff, 0xff, 0xff, 0x00, 0x00, 0x00, 0x11,
  0x01, 0x00, 0x00, 0x00, 0x1e, 0xd5, 0xff, 0xff, 0x10, 0x00, 0x00, 0x00,
  0x0c, 0x00, 0x00, 0x00, 0x1c, 0x00, 0x00, 0x00, 0x40, 0x00, 0x00, 0x00,
  0x04, 0x00, 0x00, 0x00, 0x01, 0x00, 0x00, 0x00, 0x15, 0x00, 0x00, 0x00,
  0x01, 0x00, 0x00, 0x00, 0x08, 0x00, 0x00, 0x00, 0x20, 0x00, 0x00, 0x00,
  0x73, 0x65, 0x71, 0x75, 0x65, 0x6e, 0x74, 0x69, 0x61, 0x6c, 0x2f, 0x6d,
  0x61, 0x78, 0x5f, 0x70, 0x6f, 0x6f, 0x6c, 0x69, 0x6e, 0x67, 0x32, 0x64,
  0x2f, 0x4d, 0x61, 0x78, 0x50, 0x6f, 0x6f, 0x6c, 0x00, 0x00, 0x00, 0x00,
  0x78, 0xd5, 0xff, 0xff, 0x00, 0x00, 0x0e, 0x00, 0x14, 0x00, 0x00, 0x00,
  0x08, 0x00, 0x0c, 0x00, 0x07, 0x00, 0x10, 0x00, 0x0e, 0x00, 0x00, 0x00,
  0x00, 0x00, 0x00, 0x01, 0x30, 0x00, 0x00, 0x00, 0x24, 0x00, 0x00, 0x00,
  0x10, 0x00, 0x00, 0x00, 0x0c, 0x00, 0x10, 0x00, 0x00, 0x00, 0x04, 0x00,
  0x08, 0x00, 0x0f, 0x00, 0x0c, 0x00, 0x00, 0x00, 0x01, 0x00, 0x00, 0x00,
  0x01, 0x00, 0x00, 0x00, 0x00, 0x00, 0x00, 0x01, 0x01, 0x00, 0x00, 0x00,
  0x0a, 0x00, 0x00, 0x00, 0x03, 0x00, 0x00, 0x00, 0x00, 0x00, 0x00, 0x00,
  0x06, 0x00, 0x00, 0x00, 0x08, 0x00, 0x00, 0x00, 0x00, 0x00, 0x0a, 0x00,
  0x0c, 0x00, 0x07, 0x00, 0x00, 0x00, 0x08, 0x00, 0x0a, 0x00, 0x00, 0x00,
  0x00, 0x00, 0x00, 0x03, 0x01, 0x00, 0x00, 0x00, 0xe2, 0xd5, 0xff, 0xff,
  0x10, 0x00, 0x00, 0x00, 0x0b, 0x00, 0x00, 0x00, 0x1c, 0x00, 0x00, 0x00,
  0x28, 0x00, 0x00, 0x00, 0x04, 0x00, 0x00, 0x00, 0x01, 0x00, 0x00, 0x00,
  0x40, 0x00, 0x00, 0x00, 0x03, 0x00, 0x00, 0x00, 0x08, 0x00, 0x00, 0x00,
  0x0b, 0x00, 0x00, 0x00, 0x74, 0x66, 0x6c, 0x2e, 0x63, 0x6f, 0x6e, 0x76,
  0x5f, 0x32, 0x64, 0x00, 0xcc, 0xd5, 0xff, 0xff, 0xc2, 0xd6, 0xff, 0xff,
  0x04, 0x00, 0x00, 0x00, 0x40, 0x00, 0x00, 0x00, 0xeb, 0xeb, 0x02, 0xc0,
  0x0a, 0xcd, 0x78, 0x40, 0x88, 0x1b, 0x0f, 0x40, 0x83, 0x67, 0x86, 0xb8,
  0x5f, 0xa7, 0xd7, 0xbf, 0x9e, 0x25, 0x3f, 0xc0, 0xd7, 0x6f, 0xb5, 0x3f,
  0xbd, 0x1a, 0x10, 0xc0, 0xa9, 0x08, 0xf2, 0xbf, 0x72, 0x30, 0xd1, 0xbe,
  0x5e, 0xea, 0x17, 0xc0, 0x28, 0x47, 0x90, 0x40, 0xdb, 0x69, 0xeb, 0x3f,
  0x7a, 0x7a, 0xe3, 0x40, 0x4a, 0x83, 0xc0, 0xbb, 0xd4, 0xf0, 0xe9, 0x40,
  0x6a, 0xd6, 0xff, 0xff, 0x10, 0x00, 0x00, 0x00, 0x0a, 0x00, 0x00, 0x00,
  0x10, 0x00, 0x00, 0x00, 0x20, 0x00, 0x00, 0x00, 0x01, 0x00, 0x00, 0x00,
  0x10, 0x00, 0x00, 0x00, 0x0d, 0x00, 0x00, 0x00, 0x73, 0x74, 0x64, 0x2e,
  0x63, 0x6f, 0x6e, 0x73, 0x74, 0x61, 0x6e, 0x74, 0x31, 0x00, 0x00, 0x00,
  0x4c, 0xd6, 0xff, 0xff, 0x42, 0xd7, 0xff, 0xff, 0x04, 0x00, 0x00, 0x00,
  0x20, 0x00, 0x00, 0x00, 0x2e, 0xe0, 0x00, 0xc0, 0xd1, 0xe4, 0xa5, 0xbf,
  0x9a, 0x56, 0x48, 0xbe, 0xa2, 0x16, 0xb0, 0xbd, 0xbb, 0x66, 0x07, 0xc0,
  0xdb, 0x13, 0x2f, 0xbf, 0x24, 0x2e, 0xe4, 0xbf, 0x3c, 0x44, 0x18, 0xbd,
  0xca, 0xd6, 0xff, 0xff, 0x10, 0x00, 0x00, 0x00, 0x09, 0x00, 0x00, 0x00,
  0x10, 0x00, 0x00, 0x00, 0x20, 0x00, 0x00, 0x00, 0x01, 0x00, 0x00, 0x00,
  0x08, 0x00, 0x00, 0x00, 0x0c, 0x00, 0x00, 0x00, 0x73, 0x74, 0x64, 0x2e,
  0x63, 0x6f, 0x6e, 0x73, 0x74, 0x61, 0x6e, 0x74, 0x00, 0x00, 0x00, 0x00,
  0xac, 0xd6, 0xff, 0xff, 0xa2, 0xd7, 0xff, 0xff, 0x04, 0x00, 0x00, 0x00,
  0x00, 0x08, 0x00, 0x00, 0x63, 0xdd, 0x14, 0xbe, 0x0f, 0x63, 0x40, 0xbe,
  0xe3, 0xde, 0x7a, 0x3d, 0x96, 0x13, 0x1e, 0xbe, 0x84, 0x0f, 0xdd, 0xbe,
  0xe4, 0x30, 0xcd, 0xbd, 0x6e, 0xb9, 0x17, 0xbe, 0xcd, 0x2f, 0x0a, 0xbf,
  0xc3, 0x0a, 0xa3, 0x3d, 0xe5, 0xab, 0x9e, 0x3d, 0x7e, 0x2c, 0xf1, 0xbc,
  0xfa, 0xdc, 0x0f, 0xbd, 0xd6, 0x61, 0x78, 0x3e, 0xe6, 0xb6, 0x96, 0xbd,
  0x9b, 0xe7, 0xbd, 0xbd, 0x26, 0x63, 0x05, 0xbf, 0xf6, 0x9a, 0xc3, 0x3e,
  0xdc, 0x23, 0x84, 0x3e, 0x1c, 0x66, 0x93, 0xbd, 0xf2, 0xde, 0x00, 0xbe,
  0xa8, 0x7c, 0x5f, 0x3e, 0x16, 0x9d, 0x7d, 0xbc, 0x6e, 0x3d, 0xf9, 0x3d,
  0xd8, 0xce, 0x34, 0x3e, 0x91, 0xb0, 0x5f, 0xbe, 0xf7, 0x9d, 0x18, 0x3e,
  0xaa, 0x3c, 0x0c, 0xbe, 0x1f, 0x5e, 0x04, 0xbf, 0x81, 0xeb, 0x17, 0xbf,
  0xb8, 0x40, 0xfe, 0x3c, 0x02, 0xdd, 0x30, 0x3e, 0x7e, 0xf8, 0x5a, 0x3e,
  0xa8, 0xa0, 0xb2, 0xbe, 0xe2, 0xd3, 0xb0, 0x3d, 0x31, 0x67, 0x92, 0xbe,
  0x65, 0xbb, 0x16, 0xbe, 0xbd, 0xfa, 0xc8, 0x3d, 0xc0, 0xf8, 0x7b, 0x3e,
  0x68, 0x60, 0x0a, 0x3e, 0xae, 0x67, 0x85, 0xbd, 0x19, 0xb7, 0xcb, 0xbd,
  0x50, 0xfe, 0x1b, 0x3e, 0x76, 0x09, 0xb8, 0xbe, 0xaa, 0xb5, 0x5f, 0x3c,
  0x42, 0x5b, 0xcf, 0x3e, 0x7c, 0xbd, 0x81, 0xbe, 0x50, 0xe8, 0x26, 0xbe,
  0xf9, 0xef, 0x24, 0xbd, 0x05, 0x28, 0x27, 0x3d, 0xec, 0x78, 0x81, 0xbd,
  0x15, 0x09, 0x13, 0x3d, 0xa8, 0xd3, 0x29, 0x3e, 0x14, 0x7b, 0xb9, 0x3e,
  0x90, 0x1d, 0x6d, 0xbe, 0xe5, 0xc5, 0x44, 0xbe, 0x7c, 0x07, 0xa3, 0xbd,
  0xe3, 0x01, 0x41, 0xbd, 0x7a, 0x5d, 0x8d, 0x3d, 0x9a, 0xc2, 0x3e, 0xbd,
  0x32, 0x41, 0x69, 0x3e, 0x11, 0x03, 0x65, 0x3e, 0xfc, 0xcc, 0x27, 0xbe,
  0xfb, 0xcd, 0x9a, 0xbd, 0x34, 0x8c, 0x12, 0xbd, 0x43, 0xc3, 0xa4, 0x3d,
  0xeb, 0x24, 0x68, 0x3d, 0x76, 0x16, 0x29, 0xbd, 0xa6, 0x62, 0xbd, 0xbd,
  0xd9, 0xb3, 0x4c, 0xbc, 0x1a, 0x96, 0x7c, 0x3d, 0x83, 0xd2, 0xd4, 0x3d,
  0x12, 0x46, 0x8c, 0xbd, 0x93, 0x78, 0xa9, 0x3d, 0xd0, 0x93, 0x80, 0x3c,
  0xe6, 0x2d, 0x8c, 0x3d, 0x58, 0xdd, 0x0e, 0xbd, 0xca, 0x23, 0x55, 0x3d,
  0xb9, 0x12, 0xbf, 0xbc, 0xd3, 0xf8, 0x32, 0x3d, 0x4a, 0xa1, 0xde, 0xbd,
  0xe4, 0x58, 0x9f, 0xbc, 0x37, 0x09, 0x18, 0x3d, 0xc3, 0x48, 0x7a, 0xbc,
  0x64, 0x40, 0xd3, 0xbd, 0x1d, 0x8b, 0xc3, 0x3d, 0xff, 0x4c, 0x63, 0xbc,
  0xb3, 0x0f, 0xad, 0xbc, 0xad, 0x3c, 0x62, 0x3d, 0xf0, 0xd4, 0x8e, 0x3e,
  0x57, 0x84, 0x51, 0xbe, 0xde, 0xcb, 0x52, 0x3d, 0xe2, 0x60, 0xb6, 0x3c,
  0xfa, 0x47, 0xba, 0xbd, 0x2e, 0xb1, 0xa9, 0xbd, 0x93, 0x44, 0x02, 0x3e,
  0x2b, 0xd5, 0xb6, 0x3e, 0x6e, 0xf5, 0x0c, 0xbf, 0x53, 0xea, 0xa9, 0xbd,
  0x82, 0xcf, 0x6e, 0x3e, 0xa1, 0x29, 0xec, 0xbb, 0xa6, 0x3d, 0x5e, 0xbd,
  0x7a, 0xbf, 0x6e, 0xbe, 0x7a, 0xad, 0x71, 0xbe, 0xd2, 0x34, 0x5d, 0xba,
  0x53, 0x55, 0x95, 0xbe, 0x52, 0x6e, 0x42, 0xbe, 0xf2, 0xae, 0x9c, 0x3d,
  0x7c, 0x4b, 0x59, 0xbd, 0x37, 0xce, 0x09, 0xbe, 0x50, 0x11, 0x41, 0x3e,
  0xcc, 0x59, 0x13, 0x3e, 0x50, 0xae, 0xef, 0x3d, 0x28, 0x42, 0x96, 0xbe,
  0xd7, 0xa2, 0x2a, 0xbe, 0x0e, 0x01, 0x13, 0xbe, 0xc9, 0xf3, 0x52, 0xbd,
  0xb4, 0xe0, 0x38, 0xbe, 0x16, 0x1f, 0x7a, 0x3d, 0x77, 0x45, 0xe1, 0x3d,
  0xdb, 0x7f, 0x22, 0x3d, 0x51, 0x9b, 0xa4, 0xbe, 0xf0, 0xd1, 0x5f, 0xbd,
  0x4d, 0x4e, 0x78, 0x3e, 0x8c, 0xc5, 0x1b, 0xbc, 0xd0, 0x62, 0x14, 0xbe,
  0x48, 0x69, 0x0f, 0x3e, 0x5b, 0xb0, 0xd3, 0x3d, 0x4a, 0x6e, 0x0c, 0x3e,
  0xdd, 0xb6, 0x2d, 0xbe, 0xf4, 0x6d, 0x4c, 0x3e, 0x32, 0x0b, 0x8b, 0xbd,
  0x4d, 0x79, 0x99, 0xbe, 0xc2, 0x2d, 0x24, 0xbf, 0x27, 0x4f, 0xca, 0xbe,
  0x6c, 0xf7, 0xba, 0xbe, 0x4d, 0xf9, 0x1f, 0xbe, 0x1e, 0x5e, 0x17, 0xbe,
  0x86, 0xe3, 0xdb, 0x3e, 0x3d, 0x0e, 0xcd, 0xbe, 0xe4, 0xb3, 0x40, 0x3e,
  0x02, 0x4e, 0xcd, 0x3c, 0x70, 0x45, 0x47, 0xbf, 0xb1, 0xa0, 0x9c, 0xbe,
  0xff, 0x1b, 0x05, 0x3f, 0x90, 0x9c, 0x55, 0xbe, 0x78, 0x35, 0x70, 0xbe,
  0x75, 0x5b, 0x6f, 0xbe, 0xd0, 0xff, 0x44, 0xbe, 0xb9, 0xf2, 0xa4, 0x3e,
  0xa7, 0x1e, 0xce, 0xbd, 0xd1, 0xf3, 0x48, 0xbd, 0xb5, 0xea, 0xb8, 0xbc,
  0xb1, 0x97, 0xc7, 0xbd, 0x03, 0x35, 0x24, 0x3e, 0x29, 0x86, 0x7c, 0x3e,
  0x63, 0x76, 0x70, 0x3e, 0xa6, 0xde, 0xef, 0x3c, 0x43, 0x40, 0x30, 0x3e,
  0x8a, 0xbe, 0x67, 0xbd, 0xf6, 0x78, 0x9f, 0xbe, 0xc6, 0x7a, 0x36, 0xbe,
  0x8a, 0xa4, 0x0b, 0xbe, 0xe7, 0x9d, 0x4e, 0xbd, 0x20, 0xcb, 0x80, 0xbe,
  0x60, 0x63, 0x03, 0xbf, 0xf5, 0x8c, 0xdd, 0xbd, 0x5f, 0x2c, 0x82, 0xbe,
  0x73, 0xc0, 0x5c, 0xbe, 0xc0, 0xbe, 0x39, 0xbe, 0x61, 0xf7, 0x6a, 0xbe,
  0xf4, 0x6f, 0xd2, 0xbd, 0x87, 0xd1, 0x82, 0xbd, 0x25, 0xee, 0x25, 0xbd,
  0xa3, 0x6f, 0x10, 0xbe, 0x3e, 0xf6, 0x68, 0xbe, 0x0f, 0x95, 0x17, 0xbe,
  0x22, 0x08, 0x1d, 0xbd, 0x87, 0xf7, 0xd8, 0xbd, 0x7b, 0x32, 0x26, 0xbd,
  0xe2, 0x3c, 0x88, 0x3d, 0x70, 0xe3, 0xd0, 0x3e, 0xfb, 0x56, 0xa1, 0xbd,
  0xe8, 0x13, 0x23, 0xbe, 0xcd, 0xda, 0xaa, 0xbe, 0x78, 0xac, 0x5b, 0x3d,
  0x16, 0xd0, 0xb3, 0x3e, 0x3f, 0x71, 0x26, 0x3d, 0xd5, 0xb4, 0x43, 0x3e,
  0x13, 0x3e, 0x87, 0x3e, 0x66, 0x23, 0x11, 0x3e, 0x97, 0x2a, 0xf3, 0x3e,
  0x5d, 0x5b, 0x7c, 0xbe, 0x8b, 0x4a, 0x1f, 0xbb, 0x5a, 0xe3, 0x92, 0xbe,
  0xf3, 0x6b, 0x27, 0xbe, 0xcd, 0x3d, 0x6f, 0x3d, 0x64, 0xb7, 0x32, 0xbe,
  0x6c, 0x71, 0x99, 0x3d, 0xcc, 0x47, 0xa5, 0x3d, 0x51, 0x50, 0x6b, 0xba,
  0x3b, 0xad, 0x6b, 0xbe, 0x75, 0xd7, 0x65, 0x3d, 0x0f, 0x45, 0xb2, 0xbe,
  0x44, 0x08, 0x09, 0xbe, 0x26, 0x81, 0x80, 0xbe, 0x84, 0x8f, 0xa5, 0xbb,
  0xfa, 0xd0, 0xb0, 0x3d, 0xf4, 0x44, 0x26, 0xbe, 0x3b, 0xf0, 0xdf, 0xbd,
  0xd3, 0x82, 0x82, 0xbe, 0x2d, 0xf5, 0x83, 0x3d, 0xd6, 0xef, 0xb8, 0xbd,
  0x4d, 0x32, 0x2b, 0xbd, 0xb4, 0x94, 0xe3, 0x3d, 0x4e, 0xd3, 0x01, 0x3e,
  0x13, 0x0c, 0xa1, 0x3d, 0xfe, 0x90, 0x3e, 0x3e, 0xf7, 0xca, 0x34, 0xbb,
  0x2a, 0xd0, 0x3e, 0xbe, 0xe7, 0x73, 0xc7, 0x3d, 0x82, 0x23, 0x96, 0xbe,
  0xb9, 0x67, 0x58, 0x3d, 0xef, 0xdf, 0xaf, 0xbe, 0x86, 0xbf, 0xc9, 0xbd,
  0xfb, 0xf8, 0x17, 0x3f, 0x85, 0x75, 0x22, 0x3f, 0x3f, 0xca, 0x87, 0xbc,
  0xb1, 0x38, 0x64, 0xbe, 0x2f, 0xe8, 0x8c, 0x3e, 0x09, 0x91, 0x48, 0x3e,
  0x10, 0x0a, 0x77, 0x3e, 0xe7, 0xdd, 0x03, 0x3e, 0xaa, 0xad, 0x3d, 0xbe,
  0xa4, 0xc8, 0x19, 0xbe, 0x4f, 0xfc, 0x48, 0xbe, 0xba, 0x24, 0xbe, 0xbe,
  0x1d, 0x01, 0xfe, 0xbd, 0xd2, 0x87, 0xbb, 0x3c, 0xf5, 0xb7, 0x23, 0xbd,
  0x6a, 0x75, 0x56, 0xbe, 0x97, 0xf7, 0x6a, 0xbe, 0x14, 0x8c, 0x1d, 0xbe,
  0x75, 0x96, 0x00, 0xbe, 0xef, 0x23, 0x9b, 0xbd, 0x5f, 0x9f, 0xad, 0xbd,
  0x15, 0x64, 0x80, 0xbd, 0x10, 0x41, 0x29, 0xbd, 0x49, 0x02, 0xd1, 0x3c,
  0x4c, 0x7a, 0xa0, 0xbe, 0x1f, 0xb6, 0x69, 0xbe, 0x9f, 0x30, 0xfc, 0xbd,
  0x97, 0x1e, 0x7f, 0x3d, 0xe9, 0x41, 0x63, 0x3c, 0xfe, 0x6c, 0x07, 0xbe,
  0x6e, 0x72, 0x59, 0xbe, 0x1d, 0x5f, 0xaa, 0x3c, 0x21, 0xa6, 0x9b, 0xbe,
  0x71, 0x46, 0xd3, 0xbe, 0x5e, 0x70, 0x0f, 0xbe, 0xda, 0x28, 0x66, 0xbe,
  0x6b, 0xba, 0x9d, 0xba, 0x1e, 0x5c, 0x5e, 0xbe, 0x0a, 0xe0, 0xc9, 0xbe,
  0x4d, 0x29, 0x03, 0xbf, 0x0d, 0x8e, 0xb8, 0x3c, 0xe0, 0x55, 0xad, 0x3e,
  0xbe, 0xc1, 0x43, 0x3e, 0x9b, 0x60, 0x2e, 0xbe, 0xc7, 0x29, 0x19, 0xbd,
  0xba, 0xdf, 0x58, 0xbe, 0x37, 0x8b, 0x23, 0xbe, 0xbb, 0x18, 0xaa, 0x3d,
  0x10, 0x73, 0x37, 0xbd, 0x8a, 0x64, 0x69, 0x3e, 0x8d, 0xad, 0x03, 0xbe,
  0x78, 0x28, 0xe1, 0x3d, 0x8c, 0xc2, 0x85, 0x3e, 0xb5, 0xfa, 0x6c, 0xbd,
  0xcd, 0x7a, 0x8e, 0xbd, 0x6d, 0x5b, 0xc2, 0x3e, 0xcc, 0x27, 0x1d, 0xbe,
  0x9f, 0x18, 0x47, 0xbe, 0xff, 0x9f, 0x10, 0xbf, 0x24, 0x27, 0xa6, 0xbd,
  0xe0, 0x85, 0x91, 0xbf, 0x2b, 0xd5, 0x7c, 0xbe, 0xef, 0xb3, 0xc2, 0xbd,
  0x63, 0x17, 0xae, 0x3d, 0xa7, 0x7b, 0xe5, 0xbd, 0xaa, 0xd2, 0x2c, 0x3f,
  0xf3, 0xe0, 0xd3, 0xbe, 0xf9, 0xd0, 0x43, 0x3e, 0x56, 0x67, 0x84, 0x3e,
  0x34, 0x80, 0xe8, 0xbe, 0x8d, 0x8a, 0x13, 0xbe, 0x3a, 0x9a, 0x7c, 0x3d,
  0x4b, 0x00, 0x06, 0xbe, 0xbf, 0xab, 0x0e, 0x3e, 0x01, 0x21, 0x97, 0xbe,
  0xec, 0x9f, 0xf7, 0x3e, 0xbf, 0x85, 0xa2, 0xbd, 0xbf, 0xe5, 0x90, 0xbe,
  0x01, 0x4b, 0x10, 0xbe, 0x27, 0x14, 0x19, 0xbe, 0x54, 0x32, 0xa3, 0xbd,
  0xbe, 0x8f, 0x20, 0x3d, 0xdb, 0xee, 0xe3, 0xbd, 0x5e, 0x7f, 0xa4, 0xbe,
  0x51, 0xde, 0xb7, 0x3e, 0xb1, 0xe8, 0xfd, 0xbd, 0x51, 0xe1, 0xbd, 0xbd,
  0xaf, 0xaa, 0x8c, 0xbd, 0x7f, 0x92, 0xeb, 0xbc, 0xea, 0x35, 0x89, 0x3e,
  0x4b, 0x06, 0x32, 0xbd, 0x1d, 0x59, 0x2a, 0x3c, 0xca, 0xe7, 0xd4, 0x3d,
  0x06, 0x74, 0xa0, 0x3b, 0xa2, 0xb9, 0x95, 0xbc, 0x30, 0xfe, 0x4b, 0xbd,
  0x55, 0x9a, 0x58, 0x3d, 0x06, 0xa7, 0xa7, 0x3e, 0xd2, 0x84, 0x35, 0xbd,
  0xc2, 0xa9, 0xbb, 0xbe, 0xd4, 0xd3, 0x0e, 0xbf, 0x62, 0x87, 0x06, 0xbf,
  0x21, 0xa0, 0x8e, 0xbe, 0x36, 0x5b, 0xd8, 0x3e, 0x98, 0x6f, 0xf4, 0xbd,
  0x88, 0xfb, 0x9e, 0x3e, 0x4d, 0x48, 0xca, 0xbe, 0xac, 0xd4, 0xe2, 0xbd,
  0xd3, 0x2a, 0x2c, 0x3e, 0xeb, 0x6d, 0xf4, 0xbe, 0xf6, 0x5f, 0xeb, 0xbd,
  0x92, 0xfc, 0xd5, 0x3e, 0xc2, 0x74, 0x1e, 0xbe, 0xfe, 0x04, 0x75, 0xbe,
  0x2a, 0x87, 0x2c, 0x3c, 0x7a, 0xac, 0xb5, 0x3e, 0x28, 0xbb, 0x58, 0xbd,
  0x3c, 0xcb, 0xea, 0xbb, 0xcc, 0x2a, 0x9a, 0xbc, 0x13, 0x09, 0xb7, 0xbe,
  0x78, 0xb8, 0x7b, 0xbd, 0x6b, 0xc3, 0x62, 0x3e, 0x1d, 0xe9, 0x1a, 0x3e,
  0x50, 0x7b, 0x1e, 0xbe, 0xc7, 0xe4, 0xbe, 0xbb, 0x8d, 0x19, 0xe4, 0x3d,
  0x02, 0x3d, 0x2f, 0x3d, 0xc7, 0x42, 0x7d, 0xbe, 0x98, 0x2a, 0x6b, 0x3e,
  0xd0, 0xe0, 0xa3, 0x3e, 0xfb, 0x27, 0x67, 0xbc, 0xe9, 0x2f, 0x29, 0x3e,
  0xac, 0x9b, 0x1f, 0x3f, 0x6a, 0xec, 0xa5, 0xbc, 0x62, 0xf9, 0x72, 0xbd,
  0x6e, 0x5a, 0x93, 0xbe, 0xba, 0x22, 0x9a, 0x3d, 0x60, 0x98, 0x9c, 0x3d,
  0x7d, 0x27, 0x00, 0xbd, 0x4f, 0xbc, 0x3f, 0xbe, 0x2b, 0x60, 0x63, 0xbd,
  0x88, 0x77, 0xd7, 0x3c, 0xac, 0x0e, 0x93, 0x3e, 0x24, 0xb4, 0x42, 0xbe,
  0x76, 0xae, 0x17, 0xbe, 0x3f, 0x97, 0x3a, 0xbd, 0x0a, 0xdf, 0x4a, 0xbd,
  0x79, 0x1a, 0x65, 0xbe, 0x09, 0xeb, 0x00, 0xbf, 0x6d, 0xf8, 0x54, 0xbd,
  0x93, 0xeb, 0x9f, 0xbd, 0xe1, 0xf6, 0xf5, 0xbd, 0xb1, 0x66, 0x4e, 0xbe,
  0x92, 0x09, 0x4c, 0xbe, 0xc2, 0x9a, 0xea, 0xbd, 0x84, 0xa0, 0x08, 0xbd,
  0x50, 0xcb, 0x00, 0xbf, 0xf9, 0x51, 0x8a, 0xbd, 0xf7, 0x25, 0xbb, 0xbd,
  0x58, 0x66, 0xa3, 0x3d, 0xa8, 0xda, 0x6d, 0x3c, 0x46, 0x6b, 0x93, 0x3d,
  0xd2, 0xba, 0x3a, 0xbe, 0xf7, 0x4e, 0x20, 0x3e, 0x1c, 0xda, 0x09, 0xbd,
  0xa3, 0x8b, 0xd3, 0x3c, 0x58, 0x84, 0x5b, 0x3d, 0xde, 0xc8, 0xb8, 0x3e,
  0x54, 0xb5, 0x47, 0xbd, 0x75, 0x58, 0x12, 0x3e, 0xc6, 0xb2, 0xb0, 0x3d,
  0x35, 0x6b, 0x83, 0x3e, 0x6c, 0x25, 0x9e, 0x3c, 0xd6, 0x57, 0x8f, 0xbd,
  0x5b, 0xa4, 0x83, 0xbd, 0x64, 0xdf, 0x83, 0xbd, 0x4a, 0x22, 0xbb, 0x3d,
  0x06, 0x49, 0x08, 0xbd, 0x9e, 0x23, 0xdc, 0x3d, 0x64, 0x32, 0x39, 0xbe,
  0xeb, 0x08, 0xe5, 0xbd, 0x3a, 0xfc, 0x8e, 0xbd, 0xc8, 0x42, 0x38, 0xbd,
  0x0d, 0x30, 0xce, 0x3d, 0x27, 0x65, 0x76, 0x3d, 0x99, 0x4c, 0x0e, 0x3e,
  0x1a, 0x8a, 0x8b, 0xbd, 0x3f, 0xd5, 0x88, 0xbe, 0x45, 0x29, 0xef, 0x3d,
  0x24, 0x9d, 0x39, 0x3e, 0x34, 0x14, 0x67, 0xbd, 0x5d, 0x76, 0x34, 0xbe,
  0xef, 0x40, 0xf9, 0xbd, 0xe8, 0x3a, 0x92, 0xbe, 0x9c, 0xf1, 0x7d, 0xbd,
  0x19, 0xaa, 0xaa, 0xbd, 0x49, 0xba, 0xdf, 0xbd, 0x04, 0xc8, 0x00, 0xbe,
  0xa7, 0x68, 0x19, 0xbe, 0x8e, 0x4c, 0x51, 0xbe, 0xde, 0xe9, 0xad, 0xbd,
  0x4f, 0x6b, 0xa5, 0xbe, 0xbe, 0x02, 0x4f, 0xbd, 0xc8, 0x77, 0x26, 0xbc,
  0x6c, 0xe7, 0x90, 0xbd, 0x0a, 0x7b, 0xd9, 0xbd, 0x2a, 0x6f, 0x0f, 0xbe,
  0x90, 0x70, 0x83, 0xbe, 0xe4, 0x24, 0xe8, 0xbb, 0x05, 0xaf, 0xa3, 0xbd,
  0x3a, 0x03, 0x8f, 0x3b, 0x6d, 0x0c, 0x9d, 0xbd, 0xa4, 0xf9, 0xb2, 0x3e,
  0xec, 0xe7, 0xe9, 0xbd, 0xbd, 0xb0, 0xcd, 0xbd, 0x27, 0x31, 0xfc, 0xbd,
  0x5e, 0xf1, 0x60, 0x3e, 0x60, 0x7c, 0x9d, 0x3d, 0x48, 0x43, 0x10, 0x3d,
  0xf9, 0xe4, 0x9e, 0xbd, 0x83, 0x4d, 0x39, 0x3e, 0xf6, 0x50, 0xae, 0x3d,
  0x83, 0x76, 0x01, 0x3f, 0xd4, 0xd0, 0x07, 0xbe, 0xd1, 0x3b, 0x1d, 0x3e,
  0xbe, 0xba, 0x2f, 0x3f, 0x9c, 0x0c, 0x91, 0xbe, 0x13, 0xfb, 0x02, 0x3e,
  0x0a, 0x4a, 0x5b, 0x3e, 0xb3, 0x7a, 0x01, 0xbf, 0x49, 0x09, 0xa5, 0xbe,
  0x9e, 0xdf, 0xf1, 0x3d, 0xa2, 0x62, 0x53, 0x3d, 0x4d, 0xeb, 0x02, 0x3e,
  0xaa, 0x29, 0xc2, 0xbe, 0x77, 0x2c, 0xca, 0x3c, 0xbc, 0x63, 0xc2, 0x3e,
  0x09, 0x08, 0x03, 0xbf, 0x6e, 0xbb, 0x2f, 0xbe, 0x59, 0xa7, 0xa7, 0x3d,
  0xbc, 0x9e, 0x1d, 0xbd, 0x41, 0x40, 0x58, 0x3d, 0x60, 0xd3, 0x9e, 0xbe,
  0x6a, 0xbe, 0xba, 0x3e, 0x62, 0xd5, 0x91, 0xbd, 0xa0, 0xa5, 0x55, 0xbe,
  0x15, 0xa1, 0x23, 0xbe, 0x72, 0x0f, 0x89, 0x3e, 0x61, 0x11, 0xc5, 0x3b,
  0xbe, 0x85, 0x00, 0x3e, 0x15, 0x2e, 0x5c, 0xbe, 0x97, 0x14, 0x04, 0x3d,
  0xc3, 0x16, 0xb3, 0x3e, 0x80, 0x3a, 0x8b, 0xbc, 0x84, 0x78, 0xb4, 0xbd,
  0x95, 0x1a, 0xce, 0x3c, 0x29, 0xd3, 0xd1, 0xbd, 0xcc, 0x55, 0x62, 0x3e,
  0x39, 0xf2, 0x89, 0x3d, 0x25, 0x55, 0xb4, 0xbe, 0x44, 0x44, 0x8f, 0xbe,
  0xcc, 0xbc, 0x7c, 0x3e, 0xa0, 0xb1, 0x82, 0x3d, 0x04, 0xe3, 0x86, 0xbe,
  0x54, 0xbc, 0x6c, 0xbe, 0x35, 0xae, 0x8d, 0x3e, 0x2a, 0xbd, 0xaa, 0x3a,
  0xbc, 0xba, 0xba, 0xbe, 0xa0, 0x1a, 0x9e, 0xbe, 0x8b, 0x1f, 0x78, 0xbd,
  0x37, 0x19, 0x91, 0xbc, 0xfa, 0xfc, 0x2c, 0xbe, 0x2b, 0x98, 0x97, 0xbe,
  0x33, 0xc0, 0x98, 0x3d, 0xb6, 0x7e, 0x4b, 0xbd, 0xc9, 0x8c, 0x8c, 0xbd,
  0xbe, 0x33, 0x6d, 0x3d, 0x01, 0xb9, 0x87, 0xbc, 0x2d, 0x4c, 0xc8, 0xbd,
  0x54, 0x84, 0x0d, 0x3e, 0x03, 0x16, 0xea, 0xbd, 0x39, 0xf4, 0x16, 0xbe,
  0xb5, 0x15, 0x67, 0xbc, 0xe7, 0x3d, 0xbe, 0x3e, 0xeb, 0x90, 0xae, 0x3d,
  0xeb, 0x80, 0x0b, 0xbe, 0x74, 0x1d, 0x45, 0xbe, 0x2b, 0x9d, 0x99, 0x3e,
  0x0a, 0xdf, 0xff, 0xff, 0x10, 0x00, 0x00, 0x00, 0x08, 0x00, 0x00, 0x00,
  0x1c, 0x00, 0x00, 0x00, 0x38, 0x00, 0x00, 0x00, 0x04, 0x00, 0x00, 0x00,
  0x10, 0x00, 0x00, 0x00, 0x04, 0x00, 0x00, 0x00, 0x01, 0x00, 0x00, 0x00,
  0x08, 0x00, 0x00, 0x00, 0x1a, 0x00, 0x00, 0x00, 0x73, 0x65, 0x71, 0x75,
  0x65, 0x6e, 0x74, 0x69, 0x61, 0x6c, 0x2f, 0x63, 0x6f, 0x6e, 0x76, 0x32,
  0x64, 0x5f, 0x31, 0x2f, 0x43, 0x6f, 0x6e, 0x76, 0x32, 0x44, 0x00, 0x00,
  0x04, 0xdf, 0xff, 0xff, 0xfa, 0xdf, 0xff, 0xff, 0x04, 0x00, 0x00, 0x00,
  0x80, 0x01, 0x00, 0x00, 0x94, 0x0e, 0xc4, 0x3d, 0xa7, 0x93, 0x35, 0x3e,
  0xc8, 0x63, 0x8b, 0xbe, 0xa6, 0x8b, 0x47, 0xbd, 0x2b, 0x05, 0x26, 0x3e,
  0x47, 0xb8, 0x80, 0xbe, 0x40, 0x54, 0x2b, 0x3d, 0xe6, 0xab, 0xc1, 0xbd,
  0xfe, 0x9e, 0x1b, 0x3d, 0x79, 0xff, 0x1d, 0x3e, 0x3f, 0x54, 0x82, 0xbe,
  0xec, 0x6e, 0x6c, 0x3e, 0xc1, 0x6a, 0x39, 0x3d, 0x3e, 0x51, 0x12, 0x3d,
  0xe1, 0x07, 0x07, 0xbe, 0x96, 0x96, 0x10, 0xbe, 0x1c, 0xb8, 0x15, 0xbe,
  0x17, 0x25, 0x16, 0xbf, 0xa0, 0xed, 0x4b, 0x3e, 0xcb, 0xf0, 0x9d, 0xbd,
  0x51, 0xa4, 0x42, 0x3e, 0xb7, 0xa1, 0x8d, 0xbd, 0x3e, 0xed, 0x1f, 0x3e,
  0xb2, 0x39, 0xdc, 0x3e, 0x76, 0xb8, 0x25, 0xbd, 0xb8, 0xfe, 0xc1, 0xbd,
  0xf9, 0xff, 0xd3, 0xbd, 0xb4, 0x17, 0x1e, 0xbe, 0xe8, 0x67, 0xbd, 0x3d,
  0xf7, 0xa1, 0x33, 0xbd, 0x15, 0x96, 0x8a, 0xbd, 0x1f, 0xd4, 0x09, 0x3d,
  0xec, 0x2a, 0x0b, 0xbe, 0x2f, 0xdc, 0xe5, 0xbd, 0xc2, 0xaf, 0x32, 0xbd,
  0xbe, 0xab, 0x96, 0xbd, 0xe2, 0xb8, 0xab, 0x3e, 0xc2, 0xa6, 0x96, 0xbd,
  0xf7, 0xa7, 0x85, 0xbd, 0x55, 0xa0, 0xd1, 0x3e, 0xf4, 0x7d, 0x29, 0x3e,
  0xf9, 0x2a, 0x15, 0x3b, 0xe5, 0x0b, 0xbb, 0xbe, 0x0b, 0xfa, 0x92, 0x3e,
  0x70, 0xa4, 0x33, 0x3e, 0x8d, 0x3f, 0x71, 0xbe, 0xfe, 0x84, 0x70, 0xbe,
  0x8f, 0x3a, 0x4e, 0xbe, 0xfe, 0xb0, 0x2c, 0x3d, 0xb7, 0x5f, 0x00, 0x3d,
  0x9a, 0xc5, 0xf0, 0xbc, 0xf8, 0x2d, 0x21, 0x3e, 0xc4, 0xd5, 0x1a, 0x3f,
  0x76, 0xa8, 0x9e, 0x3d, 0x65, 0xfc, 0x9f, 0xbd, 0x29, 0xf8, 0x13, 0xbe,
  0x77, 0x08, 0xfe, 0x3d, 0x6d, 0x4c, 0xd2, 0xbd, 0x1b, 0xcd, 0x07, 0xbf,
  0xfd, 0x26, 0x67, 0xbe, 0x41, 0x2c, 0xbd, 0xbd, 0xe2, 0x20, 0x05, 0xbe,
  0x05, 0x04, 0x18, 0x3e, 0x7c, 0x14, 0x3c, 0xbd, 0x8e, 0x2f, 0x8c, 0xbd,
  0x72, 0x9c, 0x2d, 0x3d, 0xcb, 0x89, 0x09, 0xbd, 0x14, 0xcb, 0xbb, 0x3a,
  0x1c, 0xfb, 0x20, 0x3d, 0xee, 0xce, 0x97, 0xbd, 0x60, 0xf9, 0x8f, 0x3c,
  0x25, 0xc3, 0x41, 0x3d, 0x98, 0xad, 0x41, 0x3e, 0xfb, 0x1f, 0x7c, 0xbe,
  0xfd, 0x6c, 0x32, 0x3e, 0xf9, 0x2c, 0x9f, 0xbd, 0x5d, 0xc1, 0x49, 0xbd,
  0xb3, 0x1b, 0x0c, 0x3e, 0x5c, 0x99, 0x5a, 0xbe, 0xe3, 0x4a, 0x11, 0x3e,
  0x59, 0xdd, 0xf0, 0xbb, 0x98, 0x43, 0x49, 0xbd, 0x78, 0x55, 0x71, 0x3d,
  0x7e, 0x01, 0x29, 0x3d, 0x8b, 0xf7, 0x46, 0x3d, 0xf5, 0x30, 0x18, 0xbe,
  0xa8, 0x66, 0x24, 0xbe, 0x01, 0x91, 0x67, 0xbe, 0x41, 0x51, 0x10, 0xbe,
  0x45, 0xd2, 0x84, 0xbe, 0x76, 0xd8, 0x87, 0x3e, 0xe5, 0xfd, 0xc5, 0x3e,
  0x2e, 0xb2, 0xdf, 0x3d, 0xdb, 0x45, 0x67, 0x3d, 0xb5, 0xc9, 0x93, 0x3d,
  0x5b, 0xe3, 0x99, 0x3e, 0xe2, 0xe0, 0xff, 0xff, 0x10, 0x00, 0x00, 0x00,
  0x07, 0x00, 0x00, 0x00, 0x1c, 0x00, 0x00, 0x00, 0x38, 0x00, 0x00, 0x00,
  0x04, 0x00, 0x00, 0x00, 0x08, 0x00, 0x00, 0x00, 0x04, 0x00, 0x00, 0x00,
  0x03, 0x00, 0x00, 0x00, 0x01, 0x00, 0x00, 0x00, 0x18, 0x00, 0x00, 0x00,
  0x73, 0x65, 0x71, 0x75, 0x65, 0x6e, 0x74, 0x69, 0x61, 0x6c, 0x2f, 0x63,
  0x6f, 0x6e, 0x76, 0x32, 0x64, 0x2f, 0x43, 0x6f, 0x6e, 0x76, 0x32, 0x44,
  0x00, 0x00, 0x00, 0x00, 0xdc, 0xe0, 0xff, 0xff, 0xd2, 0xe1, 0xff, 0xff,
  0x04, 0x00, 0x00, 0x00, 0xc0, 0x00, 0x00, 0x00, 0x01, 0x6d, 0xa1, 0x3e,
  0x30, 0x13, 0x62, 0x3e, 0xbd, 0x46, 0xdc, 0xbd, 0x1c, 0x88, 0x24, 0x3a,
  0x8a, 0x27, 0xc0, 0xbe, 0x91, 0x24, 0xa5, 0xbe, 0x23, 0xc1, 0x58, 0x3e,
  0xbc, 0x2d, 0x46, 0x3e, 0xe4, 0x43, 0x11, 0x3e, 0xc9, 0xad, 0xc5, 0xbd,
  0x0d, 0x34, 0x8a, 0x3e, 0xd9, 0x60, 0xd7, 0xbe, 0x21, 0xe4, 0xd5, 0x3e,
  0xde, 0xff, 0xc5, 0xbe, 0x56, 0xf8, 0x04, 0x3d, 0x79, 0x20, 0xde, 0xbe,
  0xf0, 0xa2, 0xa7, 0x3e, 0x2d, 0xb7, 0xa3, 0x3e, 0x32, 0x19, 0xcc, 0xbe,
  0xaf, 0x3f, 0xa8, 0xbd, 0xf9, 0x98, 0x15, 0xbd, 0xc9, 0x88, 0x34, 0xbe,
  0xe9, 0x0e, 0x0a, 0x3d, 0xa6, 0x6b, 0x4c, 0x3e, 0x86, 0x48, 0x75, 0x3e,
  0xab, 0x08, 0xd4, 0xbd, 0xc1, 0x50, 0xa2, 0x3e, 0x4d, 0xdc, 0x80, 0x3e,
  0x0c, 0x31, 0x9d, 0xbe, 0xe6, 0x9a, 0x1c, 0x3e, 0x9b, 0x9b, 0xbb, 0x3d,
  0x54, 0x5a, 0xf1, 0x3d, 0xd7, 0x5d, 0xca, 0x3e, 0xa1, 0x90, 0x62, 0x3e,
  0x6f, 0x40, 0xfd, 0xbe, 0x50, 0x87, 0xe0, 0xbd, 0xe3, 0x56, 0xaf, 0x3e,
  0x44, 0x8b, 0xb9, 0x3e, 0x3a, 0xdf, 0x42, 0x3e, 0x3a, 0xb6, 0x88, 0x3e,
  0x3b, 0x82, 0x20, 0x3e, 0x52, 0x89, 0x17, 0xbd, 0xa9, 0xd9, 0x53, 0x3e,
  0x98, 0x31, 0xe2, 0x3e, 0xcb, 0xc9, 0xab, 0x3e, 0xa2, 0xcd, 0xb1, 0x3e,
  0x7a, 0x16, 0xa5, 0xbc, 0x6b, 0x5e, 0x84, 0x3e, 0xfa, 0xe1, 0xff, 0xff,
  0x10, 0x00, 0x00, 0x00, 0x06, 0x00, 0x00, 0x00, 0x14, 0x00, 0x00, 0x00,
  0x30, 0x00, 0x00, 0x00, 0x02, 0x00, 0x00, 0x00, 0x03, 0x00, 0x00, 0x00,
  0x10, 0x00, 0x00, 0x00, 0x19, 0x00, 0x00, 0x00, 0x73, 0x65, 0x71, 0x75,
  0x65, 0x6e, 0x74, 0x69, 0x61, 0x6c, 0x2f, 0x64, 0x65, 0x6e, 0x73, 0x65,
  0x5f, 0x31, 0x2f, 0x4d, 0x61, 0x74, 0x4d, 0x75, 0x6c, 0x00, 0x00, 0x00,
  0xec, 0xe1, 0xff, 0xff, 0xe2, 0xe2, 0xff, 0xff, 0x04, 0x00, 0x00, 0x00,
  0x00, 0x1c, 0x00, 0x00, 0xb4, 0x98, 0x7e, 0xbe, 0xae, 0x06, 0x80, 0x3d,
  0xdb, 0x86, 0x62, 0x3d, 0x60, 0x87, 0x71, 0x3e, 0x67, 0x91, 0x2b, 0xbe,
  0x69, 0x94, 0x35, 0xbd, 0x6a, 0xa6, 0xf5, 0x3d, 0x9d, 0x1d, 0xe6, 0xbe,
  0x1c, 0x8c, 0xda, 0xbe, 0x2e, 0xd6, 0x30, 0xbe, 0xe1, 0xf0, 0xbb, 0xbe,
  0x51, 0x90, 0x08, 0xbf, 0xe4, 0x03, 0x61, 0xbd, 0x1e, 0x12, 0x88, 0x3d,
  0x19, 0xda, 0xcc, 0xbd, 0x92, 0xc6, 0xdf, 0xbe, 0x60, 0xed, 0x6f, 0x3e,
  0x0d, 0xae, 0xb8, 0xbc, 0x4c, 0x31, 0xc6, 0x3d, 0x05, 0x53, 0xb5, 0x3e,
  0x1a, 0xe7, 0x35, 0x3e, 0x0c, 0x9a, 0x42, 0xbe, 0x3f, 0x1a, 0x48, 0x3e,
  0x8d, 0x3a, 0xbd, 0xbe, 0x66, 0xe7, 0x5c, 0x3d, 0x55, 0x62, 0x0d, 0x3e,
  0xe6, 0x8f, 0xd9, 0x3d, 0xce, 0x89, 0xea, 0xbe, 0xb2, 0xf9, 0x94, 0x3d,
  0x9f, 0x08, 0x27, 0xbe, 0xdd, 0x0f, 0x4a, 0x3e, 0x74, 0x54, 0x0f, 0xbf,
  0xb8, 0x27, 0xc8, 0x3d, 0x01, 0x6a, 0x30, 0x3e, 0x1d, 0x94, 0xc5, 0x3d,
  0x93, 0x2c, 0x0b, 0x3e, 0x92, 0x48, 0xc0, 0xbd, 0x14, 0xcd, 0x33, 0xbe,
  0x05, 0xab, 0x24, 0x3e, 0x5e, 0x7a, 0x34, 0xbe, 0x04, 0xf4, 0xa6, 0xbd,
  0x3e, 0x8f, 0x16, 0x3f, 0xb6, 0xa3, 0x0a, 0x3e, 0x13, 0xb9, 0xb7, 0xbe,
  0x62, 0x68, 0x92, 0x3d, 0x75, 0x28, 0x28, 0xbe, 0x10, 0x71, 0x0a, 0x3e,
  0x85, 0xaf, 0xf0, 0xbd, 0x97, 0x73, 0xd9, 0xbd, 0xb9, 0xe0, 0xa7, 0x3e,
  0x7e, 0x4d, 0xcd, 0x3d, 0x8c, 0x22, 0xb3, 0x3d, 0x80, 0x2f, 0xcc, 0x3d,
  0xe8, 0xd1, 0x3f, 0xbe, 0x80, 0x68, 0x48, 0xbd, 0x6e, 0xa5, 0x39, 0x3c,
  0xca, 0xcf, 0x9d, 0x3e, 0x25, 0xcf, 0xb2, 0x3e, 0xa1, 0x1c, 0xb2, 0xbd,
  0xd4, 0x5b, 0x03, 0xbd, 0xf7, 0xda, 0xad, 0x3d, 0x54, 0xb9, 0x0f, 0xbe,
  0x7d, 0x87, 0x90, 0x3e, 0x0b, 0x0c, 0x96, 0xbd, 0x17, 0x12, 0xbe, 0xbd,
  0x95, 0xb0, 0x4c, 0x3c, 0xb2, 0x52, 0x5f, 0x3c, 0x54, 0x99, 0x2c, 0x3d,
  0x77, 0xa4, 0x27, 0xbd, 0x6d, 0xc3, 0xb6, 0xbe, 0x41, 0x21, 0xdb, 0xbb,
  0x5a, 0x0e, 0x08, 0xbe, 0xfd, 0x67, 0x34, 0x3e, 0xe5, 0x98, 0x84, 0x3e,
  0x66, 0xe2, 0xa9, 0x3c, 0x87, 0x9a, 0x28, 0xbe, 0xbd, 0xdf, 0x7f, 0x3d,
  0xa4, 0xeb, 0x66, 0xbe, 0x14, 0xc2, 0xa1, 0x3d, 0xba, 0x90, 0xd5, 0xbe,
  0xd1, 0x58, 0xcc, 0xbe, 0x4f, 0x9e, 0x83, 0x3d, 0xaa, 0xa2, 0xf0, 0x3b,
  0xb7, 0x39, 0x9d, 0x3d, 0xf7, 0xda, 0x9d, 0xbe, 0x5f, 0xa8, 0x22, 0xbf,
  0x7e, 0x5d, 0x0d, 0x3e, 0xca, 0x34, 0x9b, 0x3c, 0x74, 0xbe, 0x14, 0x3e,
  0x00, 0x14, 0xcf, 0x3c, 0x28, 0x4c, 0x59, 0xbd, 0x79, 0xab, 0xa7, 0xbe,
  0xd9, 0xf3, 0x44, 0xbd, 0x1a, 0x9c, 0x01, 0xbf, 0x59, 0xf5, 0x95, 0x3c,
  0xe8, 0x1f, 0x18, 0xbf, 0x2d, 0x8d, 0xb0, 0x3b, 0x5c, 0xeb, 0x2e, 0x3d,
  0x1f, 0xf8, 0x3e, 0x3c, 0x2c, 0x94, 0xaf, 0x3d, 0xf1, 0xd0, 0x3b, 0xbe,
  0xcc, 0x6f, 0x60, 0xbe, 0xc2, 0x86, 0x61, 0xbd, 0x23, 0xb7, 0x08, 0xbe,
  0xc9, 0xa3, 0x62, 0xbe, 0xe8, 0xb4, 0x4b, 0xbc, 0xd4, 0x05, 0x08, 0xbe,
  0x9e, 0x3b, 0x05, 0x3d, 0x8d, 0xf6, 0xea, 0xbc, 0x6f, 0x2d, 0xac, 0xbe,
  0x43, 0x13, 0x71, 0xbc, 0xec, 0xac, 0xa3, 0x3c, 0x8f, 0x94, 0xb6, 0xbe,
  0xd5, 0xed, 0x44, 0xbc, 0xe2, 0xe4, 0xb9, 0xbe, 0x2d, 0xab, 0xda, 0xbe,
  0xfa, 0x08, 0x4e, 0xbe, 0x83, 0x7c, 0x6a, 0xbe, 0xa2, 0x67, 0x1a, 0x3d,
  0x46, 0xb2, 0x0f, 0xbd, 0xd7, 0x68, 0xc2, 0xbe, 0x96, 0x44, 0x1c, 0xbe,
  0x86, 0x4c, 0x8e, 0xbc, 0x09, 0x9c, 0x84, 0xbc, 0xbc, 0xa7, 0x81, 0xbe,
  0x4c, 0x70, 0x0a, 0xbf, 0xba, 0xd1, 0x28, 0xbe, 0x1d, 0x2d, 0x01, 0xbe,
  0x93, 0x8a, 0x21, 0xbe, 0x78, 0x25, 0x20, 0x3e, 0xf9, 0x64, 0x9a, 0xbe,
  0x7a, 0xd7, 0xb7, 0xbe, 0x12, 0xef, 0xb9, 0x3c, 0x00, 0x49, 0x39, 0xbe,
  0xd1, 0x2b, 0xec, 0x3d, 0x67, 0x2b, 0x64, 0x3c, 0x92, 0xa7, 0x09, 0x3e,
  0x9c, 0x3c, 0x05, 0x3c, 0x6c, 0x39, 0x67, 0xbe, 0x2c, 0x21, 0x09, 0xbe,
  0x1e, 0x50, 0x17, 0xbe, 0x86, 0xbe, 0xc3, 0xbe, 0x09, 0x7c, 0xe1, 0x3c,
  0xaf, 0xdd, 0xc5, 0xbd, 0x2e, 0xba, 0x7c, 0xbe, 0xdb, 0x8d, 0xfc, 0x3d,
  0x1f, 0xef, 0x9e, 0xbe, 0x5f, 0x11, 0xe3, 0xbe, 0xc2, 0x83, 0x22, 0xbb,
  0x85, 0x99, 0xc8, 0xbe, 0xcf, 0x6a, 0x69, 0x3d, 0x27, 0x2e, 0xbf, 0xbc,
  0x8a, 0x5e, 0x21, 0xbe, 0x94, 0x8b, 0x04, 0x3e, 0xa5, 0xf0, 0x52, 0xbd,
  0xc9, 0x2d, 0x23, 0xbe, 0x1d, 0xdd, 0x0a, 0xbe, 0x8a, 0xd1, 0xae, 0xbe,
  0xb7, 0xc2, 0x1e, 0x3c, 0x40, 0xdc, 0x73, 0xbe, 0xb8, 0x75, 0xed, 0xbe,
  0x8f, 0x21, 0xfc, 0xbe, 0x41, 0xd5, 0x92, 0xbe, 0x84, 0xa8, 0x8d, 0xbe,
  0x26, 0x58, 0x2e, 0xbe, 0x2d, 0x78, 0x22, 0xbf, 0x48, 0x56, 0xed, 0xbc,
  0x97, 0x01, 0xb4, 0xbe, 0xd4, 0x94, 0x59, 0x3e, 0x44, 0x0c, 0x35, 0xbd,
  0xe5, 0x4c, 0xab, 0xbe, 0x17, 0x64, 0x3c, 0xbe, 0x4f, 0x11, 0x84, 0xbe,
  0x5d, 0x3b, 0x4d, 0xbf, 0x56, 0xdd, 0x16, 0xbe, 0xeb, 0x71, 0x1e, 0xbc,
  0xac, 0x3a, 0x42, 0x3d, 0xea, 0xe7, 0x62, 0x3c, 0xd9, 0xd3, 0x36, 0xbe,
  0x64, 0x0e, 0x22, 0xbe, 0xb0, 0xdd, 0x57, 0x3e, 0xde, 0x8f, 0x3f, 0xbd,
  0x46, 0xee, 0xf8, 0xbd, 0x46, 0x8e, 0xf1, 0xbe, 0xfb, 0xd2, 0x2a, 0x3e,
  0x61, 0xee, 0x3a, 0xba, 0x3b, 0xb0, 0xf5, 0x3d, 0xd2, 0x99, 0x23, 0xbf,
  0x1a, 0xc2, 0xe9, 0xbd, 0xf8, 0x83, 0xd1, 0x3d, 0x2a, 0x75, 0x52, 0xbc,
  0x24, 0x0f, 0xf2, 0x3e, 0xa7, 0xc3, 0xa6, 0xbd, 0x42, 0x72, 0x70, 0x3d,
  0x34, 0x9c, 0x36, 0xbd, 0x31, 0x6f, 0xdd, 0x3c, 0x53, 0x83, 0x41, 0x3e,
  0xe7, 0xf0, 0x0b, 0x3d, 0x90, 0x16, 0xea, 0x3c, 0xdb, 0xdc, 0xe2, 0xbe,
  0xf0, 0xdb, 0x1f, 0xbd, 0xc4, 0x07, 0x00, 0x3e, 0x8d, 0x6d, 0x32, 0x3e,
  0x56, 0x12, 0x19, 0xbc, 0xaf, 0x78, 0x2a, 0x3b, 0x15, 0x7a, 0xb4, 0x3d,
  0xea, 0xe4, 0x26, 0xbc, 0x6a, 0x83, 0x87, 0x3e, 0xed, 0x48, 0x61, 0x3d,
  0x52, 0xdf, 0x17, 0xbe, 0x66, 0x6a, 0x84, 0x3e, 0x3c, 0xfc, 0xc4, 0x3c,
  0xd6, 0xf0, 0x8b, 0x3e, 0x06, 0x9f, 0x3e, 0x3d, 0x70, 0x37, 0xea, 0x3d,
  0xf4, 0x4c, 0x1e, 0xbd, 0x50, 0x5e, 0x1e, 0x3e, 0x76, 0x05, 0x24, 0x3d,
  0x02, 0xb6, 0x65, 0x3e, 0x69, 0xfa, 0xc0, 0xbc, 0xe2, 0xd5, 0x2e, 0x3e,
  0x6b, 0x9c, 0x7b, 0xbc, 0xe9, 0x76, 0x44, 0xbd, 0x93, 0xc3, 0x1d, 0x3e,
  0x87, 0x19, 0xa4, 0xbd, 0x1b, 0x86, 0xf7, 0x3d, 0x1e, 0x64, 0x0e, 0xbc,
  0x60, 0x36, 0x1a, 0x3d, 0x2e, 0x57, 0xde, 0xbd, 0xd3, 0x0b, 0x0d, 0xbe,
  0x50, 0x27, 0x94, 0xbd, 0x2a, 0x03, 0xfe, 0x3d, 0xde, 0xe6, 0xba, 0xbd,
  0x19, 0x30, 0x34, 0x3d, 0x0a, 0xab, 0xee, 0xbd, 0x7e, 0x99, 0xf2, 0xbc,
  0x61, 0xdb, 0x5b, 0xbd, 0x92, 0xe3, 0x89, 0x3d, 0xd0, 0x2f, 0x6e, 0xbe,
  0x02, 0x1d, 0xc7, 0x3d, 0x77, 0x45, 0x34, 0xbe, 0xf2, 0x2a, 0x39, 0xbe,
  0x7b, 0x89, 0x9a, 0xbe, 0xee, 0x7f, 0x31, 0xbe, 0x44, 0x55, 0x71, 0xbe,
  0xba, 0x84, 0xbf, 0x3d, 0xfa, 0x44, 0x07, 0x3c, 0x38, 0xf5, 0x80, 0xbe,
  0xd1, 0x5c, 0xc5, 0xbd, 0x3f, 0xca, 0xab, 0xbb, 0x77, 0xda, 0x3c, 0x3e,
  0x07, 0xb4, 0x00, 0x3e, 0xec, 0x68, 0xb5, 0xbe, 0x7c, 0xbf, 0x6b, 0xbe,
  0xc4, 0xfa, 0xe4, 0x3b, 0x81, 0xa5, 0x45, 0xbd, 0x2b, 0x7a, 0xdc, 0xbd,
  0x77, 0xdb, 0x41, 0xbc, 0xa5, 0x90, 0x7b, 0xbe, 0x3b, 0x50, 0x11, 0x3e,
  0x05, 0x45, 0x4c, 0x3d, 0xe9, 0x74, 0x62, 0xbd, 0x25, 0xb6, 0x13, 0x3e,
  0xb3, 0x7b, 0x0d, 0xbd, 0xb7, 0xa7, 0xfb, 0xbd, 0x54, 0xab, 0xad, 0x3c,
  0x5e, 0xa8, 0x23, 0xbe, 0xe9, 0x97, 0x04, 0xbe, 0x82, 0xd4, 0x85, 0xbe,
  0x9d, 0x89, 0x23, 0xbd, 0xc7, 0x3a, 0x47, 0xbe, 0x97, 0xe9, 0xc0, 0x3d,
  0x28, 0xd1, 0x0f, 0x3e, 0xbe, 0x68, 0xaa, 0xbd, 0x04, 0x64, 0x8b, 0xbc,
  0x6c, 0xf3, 0x30, 0xbe, 0x3b, 0xcd, 0x53, 0xbc, 0x58, 0x2d, 0x26, 0xbc,
  0x82, 0xa4, 0xac, 0x3d, 0x2f, 0x6a, 0xf8, 0xbc, 0xb4, 0x56, 0xbf, 0xbc,
  0x85, 0x6d, 0x55, 0x3c, 0x12, 0xcb, 0xc9, 0xbd, 0xce, 0xcd, 0x26, 0xbe,
  0x94, 0xbc, 0x9e, 0xbd, 0x9b, 0x67, 0x2c, 0xbe, 0x59, 0xe1, 0xa2, 0x3c,
  0x09, 0x5c, 0x6e, 0xbe, 0x9c, 0x9c, 0x1d, 0xbe, 0xf9, 0x8a, 0x6c, 0xbe,
  0x53, 0x9a, 0x0c, 0xbe, 0x83, 0x85, 0xf9, 0x3d, 0xd9, 0xe7, 0xd3, 0x3d,
  0xb0, 0xae, 0x59, 0xbc, 0x53, 0x35, 0x31, 0x3e, 0xb4, 0x0a, 0x90, 0x3d,
  0x97, 0x1a, 0x0b, 0xbe, 0x7c, 0x88, 0xb3, 0x3d, 0x19, 0xb3, 0x0e, 0x3e,
  0x7c, 0xb1, 0x00, 0xbe, 0x58, 0xb5, 0x1f, 0xbe, 0x7d, 0x9f, 0x59, 0xbe,
  0xc9, 0x3b, 0x8a, 0xbd, 0x29, 0x19, 0x8a, 0x3d, 0xd5, 0x5e, 0x1d, 0xbc,
  0x53, 0x08, 0x2b, 0xbe, 0x6f, 0xac, 0x68, 0xbd, 0xe2, 0x72, 0xba, 0xbd,
  0x9a, 0xb2, 0xc8, 0xbd, 0xe7, 0x9b, 0x44, 0xbe, 0x26, 0x9e, 0xf8, 0x3c,
  0xb1, 0xe7, 0xdc, 0x3d, 0xf5, 0x13, 0x57, 0xba, 0xd7, 0xcc, 0xc2, 0x3c,
  0x08, 0x9c, 0x6b, 0xbe, 0x83, 0x4d, 0xc3, 0xbd, 0xba, 0x0f, 0x95, 0xbe,
  0xb6, 0xb5, 0x42, 0xbe, 0xde, 0x74, 0x1e, 0x3e, 0xee, 0xdc, 0x78, 0x3d,
  0x42, 0xff, 0x12, 0xbe, 0xf4, 0x84, 0x21, 0xbd, 0x52, 0x5e, 0x95, 0xbe,
  0x9f, 0xbd, 0xfc, 0x3d, 0x94, 0x54, 0x39, 0xbd, 0x40, 0x8b, 0xd9, 0xbd,
  0x14, 0x44, 0xef, 0xba, 0x8b, 0x83, 0xcd, 0x3d, 0x91, 0x9b, 0x54, 0x3d,
  0xaf, 0x0b, 0xa3, 0x3d, 0xdc, 0x75, 0x18, 0x3b, 0xa7, 0x65, 0x3a, 0xbd,
  0x90, 0x41, 0x8b, 0xbe, 0x75, 0x13, 0x02, 0x3e, 0x71, 0xad, 0x0f, 0xbd,
  0xf7, 0x79, 0x5e, 0xbe, 0x51, 0x25, 0xbf, 0x3d, 0x9e, 0xa4, 0x9c, 0xbe,
  0x69, 0x3a, 0x87, 0xbc, 0xfc, 0x29, 0x78, 0xbe, 0xa7, 0x1c, 0x90, 0xbe,
  0xd8, 0x9c, 0x32, 0xbd, 0xac, 0x20, 0x00, 0x3e, 0x1a, 0x79, 0xa7, 0x3e,
  0x64, 0x0f, 0x8c, 0xbe, 0x5c, 0xf5, 0x94, 0xbe, 0x06, 0x69, 0x88, 0xbe,
  0x53, 0x9d, 0x0e, 0x3e, 0x54, 0xf9, 0x1d, 0xbd, 0xc1, 0x32, 0x50, 0x3d,
  0xc4, 0xe3, 0xaa, 0xbe, 0xbb, 0x86, 0x6e, 0x3e, 0x10, 0x4d, 0x23, 0xbe,
  0xc1, 0xf2, 0xa8, 0x3e, 0xcf, 0x4f, 0xd1, 0xbc, 0x2f, 0x58, 0xf4, 0xbd,
  0x25, 0x67, 0x0b, 0xbe, 0x02, 0xea, 0xa1, 0xba, 0xce, 0xff, 0xaa, 0x3c,
  0x5c, 0x54, 0x55, 0x3e, 0x80, 0xb1, 0x94, 0xbe, 0xef, 0x94, 0x9e, 0xbe,
  0x81, 0xab, 0x09, 0xbe, 0xef, 0x5c, 0x65, 0x3e, 0x9c, 0xf0, 0xae, 0xbd,
  0x74, 0x2a, 0xb4, 0x3e, 0x68, 0xd1, 0x01, 0xbe, 0x3c, 0x1d, 0x20, 0x3f,
  0x43, 0xd1, 0xca, 0x3d, 0x9d, 0x6c, 0x63, 0x3e, 0x2e, 0x03, 0x41, 0xbd,
  0xaf, 0x5f, 0x9a, 0xbe, 0x6d, 0x62, 0x89, 0xbc, 0xac, 0x81, 0xbc, 0x3e,
  0x5e, 0xb0, 0x91, 0x3c, 0xf3, 0xf9, 0x2b, 0x3e, 0x34, 0xd0, 0x15, 0x3e,
  0x76, 0x4e, 0x59, 0xbe, 0xe9, 0x13, 0xec, 0xbd, 0xc3, 0x13, 0xb6, 0x3d,
  0x47, 0x5c, 0x1a, 0xbc, 0x4f, 0xd4, 0xfc, 0x3e, 0xe4, 0xc1, 0x52, 0xbe,
  0x4f, 0xbd, 0x1c, 0x3f, 0x96, 0xc8, 0x14, 0x3e, 0x86, 0xc1, 0xfd, 0x3d,
  0x12, 0xb5, 0xed, 0xbc, 0x5a, 0x91, 0x97, 0xbe, 0x23, 0x25, 0xd3, 0x3c,
  0xc9, 0xf2, 0x35, 0x3e, 0x69, 0x9d, 0x81, 0x3d, 0x14, 0xc8, 0x2e, 0x3e,
  0x44, 0x0e, 0x2c, 0xbe, 0x68, 0x59, 0x88, 0xbe, 0x0b, 0xf5, 0x11, 0xbd,
  0xc9, 0x9b, 0xba, 0x3e, 0x77, 0xc8, 0x94, 0x3d, 0xf6, 0xbc, 0x1f, 0x3f,
  0x5a, 0xcb, 0x4b, 0xbe, 0x27, 0xbd, 0x4c, 0x3f, 0xce, 0xb3, 0xd5, 0x3c,
  0x1b, 0xad, 0x19, 0xbc, 0x4c, 0x59, 0x81, 0xbd, 0xac, 0xfc, 0x6c, 0xbe,
  0x79, 0xdd, 0x06, 0xbe, 0x6d, 0x6d, 0x1e, 0x3e, 0xa7, 0x73, 0x56, 0x3e,
  0x86, 0xee, 0x8f, 0x3e, 0xd8, 0x17, 0x1a, 0xbe, 0x1f, 0x5b, 0xa1, 0xbe,
  0x10, 0x03, 0xee, 0xbe, 0xa6, 0x01, 0xd1, 0x3e, 0x8f, 0x43, 0x09, 0xbd,
  0x96, 0x12, 0xf7, 0x3e, 0x6f, 0x5c, 0xe8, 0xbe, 0xcc, 0x00, 0xe1, 0x3e,
  0x3d, 0x41, 0x42, 0x3e, 0xce, 0xc5, 0x64, 0xbe, 0xe1, 0x0c, 0x02, 0xbd,
  0xa5, 0x17, 0x04, 0xbe, 0x70, 0x63, 0x80, 0xbe, 0x21, 0xa0, 0x29, 0x3d,
  0xa7, 0x80, 0x44, 0xbd, 0x1f, 0xcc, 0xb7, 0x3e, 0x51, 0x4b, 0x33, 0xbd,
  0x3b, 0x5d, 0x9c, 0xbe, 0x31, 0xe3, 0x88, 0xbe, 0x58, 0x74, 0x4c, 0x3e,
  0xc3, 0x10, 0xb8, 0xbd, 0xd2, 0x2f, 0x68, 0x3e, 0x33, 0x9e, 0xc2, 0xbe,
  0xcb, 0xd8, 0x35, 0x3e, 0x7a, 0x8a, 0x91, 0xbc, 0xa0, 0x21, 0x31, 0x3d,
  0xd5, 0x97, 0x00, 0xbc, 0x71, 0x5c, 0x8c, 0xbd, 0x76, 0x48, 0x9d, 0xbe,
  0x36, 0xab, 0xa8, 0x3d, 0x9f, 0x09, 0x0e, 0x3d, 0xa3, 0xd7, 0x10, 0x3e,
  0x62, 0xd9, 0xb9, 0xbd, 0x1c, 0x86, 0x65, 0xbe, 0xe6, 0x7c, 0x9c, 0xbd,
  0x0b, 0xa3, 0xcc, 0xbc, 0xd6, 0xb4, 0xc0, 0xb9, 0x3d, 0xab, 0x6a, 0x3e,
  0xf7, 0x22, 0xf0, 0xbd, 0xfe, 0xaf, 0x9a, 0xbd, 0x50, 0x60, 0x4c, 0xbe,
  0xd0, 0xd9, 0x2e, 0xbe, 0x6a, 0x1e, 0x4b, 0xba, 0x76, 0xc5, 0xfa, 0x3c,
  0x32, 0xa3, 0x09, 0xbe, 0xa2, 0xb7, 0x98, 0xbd, 0x11, 0x66, 0xbb, 0xbc,
  0x5f, 0x9c, 0xe4, 0xbd, 0x76, 0x1b, 0x88, 0xbd, 0x8d, 0x17, 0x3b, 0xbe,
  0x42, 0x9a, 0xd9, 0x3d, 0xfd, 0x40, 0x20, 0x3d, 0x75, 0x36, 0xa3, 0xbe,
  0x37, 0x7e, 0xa8, 0x3d, 0xb7, 0x7c, 0xd5, 0x3d, 0x83, 0x3a, 0x90, 0xbd,
  0xb2, 0xa0, 0xde, 0x3d, 0xb2, 0x03, 0x0f, 0xbe, 0x03, 0x36, 0x57, 0xbe,
  0xe8, 0xc3, 0xa0, 0x3d, 0x58, 0x74, 0x2d, 0x39, 0x5a, 0xe4, 0x57, 0xbe,
  0xbd, 0x19, 0xb5, 0xbd, 0x3d, 0xfe, 0xd9, 0xbd, 0x7a, 0x93, 0x14, 0xbe,
  0x8f, 0x00, 0x31, 0x3e, 0x29, 0xc4, 0x1d, 0xbe, 0xf0, 0x3f, 0xdd, 0xbd,
  0x3b, 0x44, 0xae, 0xbe, 0x05, 0xc5, 0x4e, 0xbe, 0x48, 0x8f, 0xf0, 0x3d,
  0xd9, 0xfb, 0x22, 0xbe, 0x48, 0xf9, 0x05, 0x3d, 0x01, 0xd7, 0xb3, 0xbd,
  0x0a, 0xbc, 0x2b, 0xbe, 0xdd, 0xd7, 0x39, 0x3d, 0xbe, 0x01, 0x3f, 0x3d,
  0x79, 0xaa, 0x2b, 0xbe, 0x87, 0x9e, 0x0d, 0xbe, 0xcc, 0x49, 0x0b, 0xbd,
  0x0e, 0xad, 0x68, 0xbd, 0xf6, 0x9d, 0x34, 0xbe, 0xb9, 0xdb, 0xda, 0xbd,
  0x2a, 0x47, 0xc6, 0x3d, 0x76, 0xe7, 0x69, 0xbe, 0x06, 0xd8, 0xad, 0x3d,
  0xfd, 0x8f, 0xdc, 0x3c, 0x7e, 0x2c, 0xdb, 0x3b, 0x92, 0x55, 0x85, 0x3c,
  0x1f, 0xa4, 0x9e, 0xbb, 0xb5, 0xef, 0x3f, 0xbe, 0x78, 0x6c, 0x7a, 0xbc,
  0x8d, 0xce, 0x41, 0xbe, 0x87, 0x87, 0xae, 0x3d, 0x00, 0xfb, 0x70, 0x3d,
  0xa4, 0x45, 0x09, 0xbe, 0xc9, 0xf8, 0x82, 0xbd, 0xd0, 0x2a, 0x35, 0xbe,
  0x38, 0x14, 0x64, 0xbe, 0x40, 0x1a, 0x68, 0xbe, 0xa2, 0x04, 0x87, 0xbe,
  0xb0, 0x1c, 0x73, 0xbe, 0x67, 0xaf, 0x33, 0x3e, 0xbf, 0x27, 0xc3, 0x3d,
  0x29, 0x13, 0xc8, 0x3d, 0x0e, 0x54, 0x45, 0xbe, 0x8f, 0x89, 0x8c, 0x3d,
  0xd1, 0xb0, 0xbd, 0x3b, 0xac, 0xa6, 0x9f, 0x3a, 0x7c, 0x7a, 0xb4, 0x3d,
  0x50, 0xc9, 0x28, 0xbc, 0x98, 0xc5, 0x4a, 0xbe, 0xf6, 0xa3, 0x74, 0x3d,
  0x81, 0x01, 0xfe, 0xbd, 0x3f, 0x2f, 0xf1, 0x3d, 0x0c, 0xaa, 0x37, 0xbe,
  0xa1, 0x63, 0x9c, 0xbe, 0xde, 0x53, 0x92, 0xbe, 0x59, 0x6b, 0x57, 0xbd,
  0xe3, 0x84, 0x3e, 0xbe, 0x0f, 0x54, 0x1b, 0xbe, 0x94, 0x78, 0x06, 0x3d,
  0x4e, 0x31, 0x9f, 0xbe, 0x56, 0xdc, 0xd2, 0x3d, 0xa6, 0xb8, 0xd8, 0x3d,
  0xb3, 0xd5, 0x07, 0xbe, 0x46, 0xe0, 0x33, 0xbe, 0x34, 0xfe, 0x3e, 0xbb,
  0xc6, 0xde, 0x00, 0xbe, 0xdb, 0xd1, 0x65, 0x3d, 0x0d, 0xaa, 0x26, 0xbe,
  0x03, 0x28, 0x1d, 0x3d, 0x0f, 0x5f, 0x12, 0xbd, 0xfd, 0xe4, 0xd5, 0xbb,
  0xaf, 0xc2, 0x8e, 0x3d, 0x58, 0x96, 0x84, 0xbd, 0x4d, 0x85, 0x0e, 0x3c,
  0xfe, 0x44, 0xab, 0x3b, 0x68, 0xd2, 0x47, 0xbe, 0xe2, 0xfd, 0x0a, 0x3e,
  0x9a, 0xc1, 0xe4, 0x3d, 0x89, 0xdf, 0x52, 0xbe, 0x37, 0x6f, 0xc1, 0x3d,
  0x46, 0x65, 0xa5, 0xbd, 0x1a, 0xab, 0xb3, 0xbd, 0x7f, 0x64, 0x7c, 0xbe,
  0xcd, 0x9f, 0x77, 0xbe, 0x09, 0xc2, 0xf0, 0xbd, 0x42, 0xe7, 0x61, 0xbd,
  0x7c, 0x69, 0xa4, 0x3d, 0x52, 0x56, 0xcf, 0x3d, 0xe6, 0xde, 0x94, 0xbe,
  0x00, 0x02, 0xcc, 0x3b, 0x61, 0xa0, 0xe0, 0xbd, 0xd6, 0x9e, 0x31, 0x3b,
  0x07, 0x86, 0x56, 0xbc, 0x18, 0x19, 0xb0, 0xbd, 0xf9, 0xa4, 0x12, 0x3e,
  0xb7, 0xe2, 0x52, 0x3e, 0xe3, 0x61, 0x46, 0xbe, 0x11, 0x69, 0x1a, 0x3e,
  0xb0, 0x12, 0xe9, 0xbd, 0xc5, 0xf3, 0x3f, 0x3d, 0x53, 0xf7, 0xec, 0xbc,
  0xb3, 0xe3, 0x25, 0xbe, 0x86, 0x53, 0xa3, 0xbd, 0x01, 0xbb, 0xf0, 0xbd,
  0xb6, 0x25, 0x22, 0xbe, 0xbc, 0xb0, 0x9e, 0x3d, 0x47, 0x20, 0x14, 0x3d,
  0x58, 0x19, 0xa6, 0xbe, 0x61, 0xa0, 0xce, 0x3d, 0xf0, 0xfb, 0x3a, 0xbe,
  0x7e, 0xc0, 0x22, 0xbe, 0xf4, 0xc5, 0x91, 0xbc, 0x97, 0x4d, 0x75, 0xbe,
  0x4c, 0x98, 0x26, 0xbb, 0xef, 0x48, 0xa5, 0xbd, 0xcc, 0x27, 0xe3, 0x3d,
  0x74, 0x0d, 0xdc, 0x3d, 0xc3, 0x54, 0x63, 0xbe, 0x5a, 0x9a, 0x37, 0x3e,
  0x88, 0xe7, 0x61, 0xbe, 0xb0, 0x24, 0x1c, 0xbe, 0x34, 0x2e, 0x42, 0x3e,
  0xb2, 0x22, 0x1c, 0xbe, 0x7b, 0x0c, 0x9e, 0xbd, 0x77, 0x57, 0xb0, 0x3b,
  0x4a, 0x6e, 0x68, 0xbd, 0xfc, 0xff, 0xe3, 0xbd, 0x3b, 0xe6, 0xbe, 0xbd,
  0xe8, 0xa7, 0x9e, 0xbc, 0x09, 0xac, 0x29, 0x3d, 0xfc, 0xfc, 0x47, 0x3e,
  0x8f, 0x75, 0x25, 0x3e, 0x5a, 0x0d, 0x03, 0x3e, 0x74, 0x00, 0x8c, 0xbe,
  0x67, 0xa6, 0x04, 0xbd, 0xb2, 0xaf, 0x4f, 0xbe, 0x5c, 0x53, 0xed, 0x3d,
  0x9b, 0xc5, 0xce, 0x3d, 0xa1, 0x58, 0xfb, 0xbc, 0xc4, 0xc0, 0x94, 0x3d,
  0x92, 0xef, 0x10, 0x3e, 0x07, 0x50, 0x29, 0xbc, 0x19, 0xe0, 0x7c, 0xbe,
  0x6f, 0xf3, 0xe9, 0xbd, 0x4e, 0xa7, 0x3e, 0xbe, 0xb8, 0xe3, 0x41, 0xbe,
  0x7b, 0x57, 0x3f, 0x3e, 0x17, 0x36, 0x12, 0x3e, 0x14, 0x45, 0x1a, 0x3d,
  0x30, 0xf3, 0xc3, 0xbd, 0x07, 0x53, 0x19, 0xbe, 0xb6, 0xbb, 0xd2, 0x3b,
  0x39, 0x27, 0xe1, 0x3d, 0x02, 0x8a, 0x27, 0x3d, 0x53, 0xc0, 0x26, 0x3e,
  0xe3, 0x86, 0xe3, 0xbd, 0xe0, 0x97, 0x08, 0xbe, 0x95, 0xdc, 0x33, 0xbe,
  0x35, 0xef, 0x8b, 0x3d, 0x22, 0x9c, 0xf2, 0x3d, 0xce, 0x33, 0x5f, 0xbd,
  0x11, 0xf6, 0x53, 0x3e, 0x3a, 0x9f, 0x5a, 0xbe, 0x5a, 0x00, 0x0a, 0xbe,
  0xfb, 0x42, 0xca, 0x3c, 0x9d, 0xfa, 0x06, 0x3d, 0x6a, 0x50, 0x48, 0xbe,
  0xf0, 0x0a, 0x60, 0xbe, 0x7a, 0x74, 0x6d, 0xbe, 0x4d, 0x16, 0x09, 0xbe,
  0xd1, 0xfb, 0x46, 0xbe, 0x64, 0xa8, 0x96, 0xbd, 0x73, 0xf9, 0xec, 0x3d,
  0x9f, 0x8b, 0x65, 0xbe, 0xcf, 0xac, 0xb0, 0xbd, 0x37, 0xc9, 0xc2, 0x3d,
  0xfa, 0xc2, 0x2f, 0xbe, 0xb2, 0x50, 0xd8, 0x3d, 0xbe, 0x21, 0x27, 0xbe,
  0x47, 0x5e, 0x28, 0x3b, 0xb1, 0xfa, 0x01, 0x3d, 0x4a, 0xb6, 0xb2, 0xbe,
  0x99, 0x74, 0xf5, 0x3d, 0x27, 0xc6, 0x32, 0xbd, 0x78, 0x7d, 0x98, 0xbc,
  0x39, 0x92, 0x46, 0xbe, 0x22, 0x1f, 0x26, 0x3c, 0x2c, 0x3b, 0x21, 0xbd,
  0xba, 0x4c, 0x10, 0xbe, 0xa3, 0x6b, 0xc9, 0x3d, 0x93, 0xa3, 0x5f, 0xbe,
  0xd7, 0xaa, 0x28, 0xbd, 0xa6, 0x53, 0x61, 0xbe, 0xb2, 0x2d, 0x8c, 0xbc,
  0xef, 0xe9, 0xd5, 0x3a, 0xb4, 0x81, 0x0b, 0xbe, 0x9b, 0xef, 0x57, 0xbd,
  0x42, 0xe2, 0x5a, 0xbe, 0x51, 0xb1, 0xd5, 0x3c, 0x75, 0xdc, 0x16, 0x3b,
  0xf8, 0x41, 0x06, 0xbd, 0x57, 0x11, 0xaa, 0x3d, 0x4a, 0x1f, 0x65, 0xbe,
  0xa4, 0x9e, 0xc3, 0x3c, 0x95, 0x31, 0xe6, 0x3c, 0x80, 0x42, 0x13, 0xbf,
  0xeb, 0x35, 0x4f, 0xbd, 0x5f, 0xb8, 0x84, 0x3d, 0x36, 0x5a, 0x3c, 0x3e,
  0x73, 0x48, 0xb1, 0xbe, 0x28, 0x18, 0xfa, 0xbe, 0xbe, 0x4c, 0xcc, 0xbe,
  0x1c, 0xa0, 0xdf, 0x3d, 0x65, 0xed, 0x2a, 0x3d, 0x41, 0xf3, 0xd7, 0x3c,
  0x53, 0x4a, 0xd0, 0xbe, 0xbf, 0xc2, 0x25, 0x3e, 0x60, 0xd2, 0x6d, 0xbe,
  0x42, 0x99, 0x96, 0x3e, 0x01, 0xd9, 0x46, 0x3c, 0xfd, 0x1e, 0x9e, 0x3c,
  0x7b, 0x03, 0x68, 0xbe, 0xd6, 0x96, 0x04, 0xbc, 0x65, 0xb7, 0x3a, 0xbc,
  0xfd, 0x70, 0x37, 0x3e, 0x5b, 0x6a, 0x0d, 0xbf, 0x42, 0x64, 0x94, 0xbe,
  0x8c, 0x3d, 0x1c, 0xbe, 0x92, 0x2a, 0xd6, 0x3c, 0xdb, 0x6d, 0x77, 0x3c,
  0x26, 0x1d, 0x98, 0x3e, 0x7d, 0xf1, 0x2c, 0xbe, 0x5d, 0xd6, 0xd2, 0x3e,
  0x68, 0xa6, 0xf5, 0x3c, 0xf2, 0x8a, 0x09, 0x3f, 0x50, 0x07, 0x80, 0x3c,
  0x36, 0x39, 0x18, 0x3c, 0x6e, 0x48, 0x97, 0x3d, 0x6a, 0x18, 0x89, 0x3e,
  0x1e, 0x1e, 0xab, 0xbd, 0x5e, 0x93, 0xae, 0x3d, 0x76, 0x38, 0xb1, 0xbe,
  0x0c, 0x2f, 0xa8, 0xbe, 0x80, 0xc7, 0xda, 0x3d, 0x4c, 0xb1, 0x01, 0x3e,
  0x44, 0x52, 0x21, 0x3d, 0x91, 0x8b, 0x7e, 0x3f, 0xda, 0xba, 0xaa, 0xbd,
  0xf0, 0x19, 0x49, 0x3f, 0xb6, 0x7a, 0x17, 0x3d, 0xac, 0x32, 0x95, 0x3e,
  0x63, 0x86, 0x4d, 0x3c, 0x2d, 0x51, 0x61, 0x3c, 0xcc, 0xc4, 0x3b, 0x3e,
  0x95, 0x63, 0xee, 0x3e, 0x34, 0x57, 0x86, 0xbc, 0xab, 0x7f, 0xc0, 0x3e,
  0x6c, 0x79, 0x8b, 0xbe, 0x1b, 0x55, 0xde, 0xbe, 0xca, 0x71, 0x95, 0x3d,
  0xa5, 0x21, 0x11, 0x3f, 0xf3, 0x41, 0x0f, 0xbc, 0x1b, 0xb3, 0x88, 0x3f,
  0x6e, 0x01, 0x67, 0xbe, 0xd6, 0x2e, 0x66, 0x3f, 0x6b, 0xc6, 0x74, 0xbd,
  0xe1, 0x2d, 0x20, 0x3d, 0x89, 0x11, 0xcb, 0x3a, 0x83, 0x87, 0x1b, 0xbd,
  0xf6, 0x84, 0x0c, 0xbf, 0x57, 0xbe, 0x1b, 0x3d, 0xb3, 0x87, 0xe0, 0x3d,
  0x55, 0xda, 0xfd, 0x3e, 0x90, 0x4a, 0x79, 0xbe, 0x19, 0xb3, 0xdb, 0xbe,
  0xc6, 0x05, 0xb8, 0xbe, 0x2c, 0xd4, 0x22, 0x3f, 0xeb, 0x9a, 0xda, 0xbb,
  0x96, 0x42, 0xf6, 0x3e, 0x4c, 0x2b, 0xe1, 0xbe, 0x0a, 0x92, 0x89, 0x3e,
  0x54, 0x8d, 0x5a, 0x3e, 0x9a, 0xaf, 0x1f, 0xbe, 0x14, 0x88, 0x4f, 0x3c,
  0x43, 0x3a, 0x11, 0x3d, 0xee, 0x97, 0xb0, 0xbe, 0x3e, 0x63, 0x13, 0x3d,
  0xb2, 0xfd, 0x33, 0x3d, 0x20, 0x09, 0xee, 0x3e, 0xfc, 0x18, 0xb4, 0xbe,
  0x09, 0x5b, 0xd3, 0xbe, 0x20, 0xcf, 0xed, 0xbe, 0x59, 0xa4, 0xc1, 0x3e,
  0x90, 0x7d, 0x77, 0x3c, 0x34, 0xc0, 0x25, 0x3e, 0x2b, 0x02, 0xa1, 0xbe,
  0x7d, 0x3b, 0xe5, 0xbc, 0xb0, 0xca, 0x60, 0x3c, 0x09, 0x37, 0xaa, 0xbc,
  0x98, 0xcd, 0xbf, 0xbb, 0x7d, 0xd2, 0x11, 0x3a, 0x3e, 0x27, 0x75, 0xbe,
  0x92, 0x1b, 0x82, 0x3b, 0x58, 0xc6, 0x57, 0xbc, 0x8e, 0x00, 0xf1, 0xba,
  0x6d, 0xf1, 0xa8, 0xbd, 0xdb, 0xe5, 0xa5, 0xbd, 0x81, 0x07, 0x15, 0xbe,
  0x46, 0x0f, 0xf0, 0x3b, 0x55, 0x2c, 0xd1, 0xba, 0x59, 0x92, 0x05, 0x3e,
  0x1b, 0xab, 0x73, 0xbd, 0x98, 0xad, 0x0a, 0x3d, 0xbc, 0xad, 0x92, 0xbe,
  0xc0, 0x3b, 0x00, 0xbe, 0xb5, 0xdd, 0x70, 0xbc, 0xc5, 0xa9, 0xcc, 0x3e,
  0x85, 0x29, 0x1b, 0xbe, 0x82, 0xc8, 0x52, 0xbe, 0x58, 0x2c, 0xc9, 0x3e,
  0xe3, 0x37, 0x8d, 0xbe, 0x9f, 0x6d, 0xcc, 0xbe, 0x1c, 0xe3, 0x65, 0xbd,
  0x95, 0xee, 0x88, 0xbc, 0x3e, 0x75, 0xe7, 0xbe, 0x35, 0xcb, 0xf2, 0xbd,
  0x05, 0xf2, 0xcb, 0x3c, 0x6e, 0xc1, 0xbd, 0xbe, 0x09, 0xa3, 0x8a, 0x3d,
  0x18, 0xce, 0x13, 0x3d, 0x13, 0x3c, 0x48, 0x3d, 0x2c, 0x47, 0x7c, 0x3d,
  0x96, 0xc5, 0x83, 0x3e, 0x79, 0x72, 0x77, 0x3d, 0x48, 0xfb, 0xa5, 0x3c,
  0x11, 0xaa, 0x87, 0x3e, 0xe8, 0x8e, 0x76, 0xbe, 0x41, 0x9f, 0x8e, 0xbd,
  0x72, 0x8f, 0xd7, 0x3b, 0x55, 0x39, 0x95, 0xbd, 0xee, 0xae, 0x0b, 0xbd,
  0x68, 0x1c, 0x5e, 0xbc, 0x21, 0x9f, 0x33, 0xbd, 0x27, 0x7b, 0x2c, 0xbc,
  0xaf, 0x64, 0x1e, 0x3e, 0x88, 0x37, 0xcc, 0xbc, 0x34, 0xf4, 0x6f, 0xbe,
  0xcf, 0x71, 0xa5, 0x3d, 0x81, 0xcb, 0xab, 0x3e, 0xf1, 0xf1, 0xce, 0x3d,
  0xd9, 0x03, 0xb7, 0xbd, 0x6a, 0xc4, 0x11, 0x3d, 0x26, 0x40, 0x73, 0xbd,
  0xe2, 0x04, 0xc0, 0xbd, 0x34, 0xde, 0xfa, 0xbd, 0x34, 0x91, 0xac, 0x3d,
  0x6b, 0x95, 0x8b, 0x3d, 0x12, 0xed, 0xe0, 0xba, 0x55, 0x16, 0x67, 0xbe,
  0x1a, 0xe2, 0xed, 0x3d, 0x4f, 0x10, 0x69, 0x3e, 0x9d, 0x63, 0x9e, 0xbc,
  0x06, 0x51, 0x15, 0x3e, 0x40, 0xe8, 0xd2, 0xbd, 0x92, 0x64, 0x4c, 0x3e,
  0x41, 0xba, 0x24, 0xbe, 0x0a, 0x14, 0x03, 0x3e, 0x8a, 0x77, 0x8b, 0x3e,
  0x7e, 0x61, 0x98, 0x3d, 0x70, 0x1a, 0xe2, 0xbd, 0x4d, 0xa5, 0x14, 0xbe,
  0x56, 0x24, 0xb5, 0xbd, 0x4c, 0x2d, 0xb0, 0xbe, 0xb7, 0x8d, 0xda, 0xbd,
  0x84, 0xbd, 0x65, 0x3d, 0xc3, 0xc2, 0xd7, 0x3d, 0x22, 0x10, 0xf3, 0xbd,
  0x92, 0xe9, 0x77, 0xbd, 0xd1, 0x50, 0x4d, 0xbe, 0x3c, 0xf7, 0x20, 0x3d,
  0xdc, 0xbb, 0x94, 0x3e, 0xc7, 0xa5, 0x91, 0x3d, 0xb1, 0x43, 0x6b, 0xbd,
  0x72, 0x05, 0x5c, 0x3e, 0x41, 0x86, 0x15, 0x3b, 0x03, 0xb4, 0x0c, 0xbc,
  0xa7, 0xc4, 0x14, 0x3d, 0xdf, 0xd8, 0xae, 0xbd, 0xfb, 0x88, 0xe7, 0xbd,
  0x90, 0x44, 0x87, 0x3d, 0xd3, 0x61, 0xa9, 0xbc, 0x20, 0x88, 0xe4, 0x3d,
  0xdb, 0x7a, 0xf0, 0xbd, 0xa8, 0x7c, 0x12, 0xbd, 0xd8, 0x68, 0x30, 0xbd,
  0x89, 0x39, 0x9c, 0x3b, 0x1f, 0x2b, 0xf5, 0x3d, 0x34, 0x2d, 0x25, 0xbe,
  0xe9, 0x07, 0xed, 0xbd, 0x37, 0xc6, 0x41, 0x3e, 0x52, 0x3b, 0x28, 0xbd,
  0x6f, 0xe6, 0x2b, 0xbe, 0xad, 0x52, 0x9a, 0xbe, 0x4b, 0x6b, 0x8d, 0xbc,
  0x5d, 0x1e, 0xa8, 0xbd, 0x49, 0x4c, 0xb9, 0x3d, 0x78, 0xc7, 0x65, 0xbe,
  0xe0, 0x5c, 0x2b, 0xbe, 0x58, 0xdc, 0xd3, 0x3d, 0x22, 0x14, 0x15, 0xbe,
  0x83, 0x9f, 0x7b, 0xbc, 0x3e, 0xaa, 0x8b, 0xbd, 0xeb, 0xb4, 0x8c, 0x3d,
  0x09, 0x57, 0xaa, 0xbc, 0x5f, 0xc5, 0x7d, 0xbd, 0x52, 0xd4, 0x85, 0x3d,
  0x1c, 0x83, 0x92, 0xbc, 0xa6, 0xc1, 0x9e, 0x3d, 0x1f, 0x39, 0xe8, 0xbd,
  0xd8, 0xc3, 0xab, 0x3d, 0x02, 0xc4, 0xd9, 0xbd, 0x92, 0x9e, 0x22, 0xbe,
  0x82, 0xfa, 0xcd, 0xbc, 0x03, 0x92, 0x06, 0xbe, 0x75, 0x9c, 0xa5, 0xbc,
  0xbf, 0xc2, 0xaa, 0xbd, 0xb1, 0xeb, 0x12, 0xbe, 0x2f, 0x9b, 0x81, 0xbd,
  0xfe, 0x23, 0xc7, 0x3d, 0x61, 0xab, 0x3b, 0xbe, 0xf3, 0x25, 0x17, 0xbe,
  0x91, 0xa5, 0xa5, 0x3d, 0xcc, 0x76, 0x76, 0x3c, 0xef, 0xa9, 0xbb, 0xbd,
  0x67, 0xf1, 0x06, 0xbe, 0x25, 0xa4, 0x59, 0xbe, 0x06, 0xe6, 0xbf, 0xbe,
  0x15, 0xe9, 0x49, 0xbe, 0x1a, 0xb7, 0x31, 0x3d, 0xd9, 0xed, 0x96, 0xbd,
  0x28, 0xe1, 0x70, 0xbe, 0x8d, 0x3c, 0x50, 0xbe, 0x87, 0x51, 0xd5, 0x3d,
  0xde, 0xe4, 0x86, 0xbe, 0x9e, 0xb2, 0x7f, 0xbe, 0x29, 0x92, 0xb5, 0x3b,
  0x8a, 0x7d, 0xec, 0xbd, 0xa5, 0xcd, 0xc0, 0xbc, 0xe2, 0x15, 0x80, 0xbe,
  0xc7, 0x87, 0x15, 0xbe, 0x40, 0xcb, 0xab, 0x3c, 0x9f, 0x30, 0x4d, 0xbe,
  0x99, 0x05, 0xbd, 0xbc, 0x41, 0x1c, 0xd0, 0xbd, 0x80, 0x27, 0x1b, 0xbd,
  0xe7, 0x96, 0xec, 0xbd, 0x14, 0x69, 0xc5, 0x3d, 0x31, 0xc3, 0xae, 0xbd,
  0x27, 0x4e, 0xf4, 0x3d, 0xee, 0xeb, 0x4b, 0xbe, 0xaf, 0x44, 0x2d, 0x3e,
  0xd1, 0xab, 0x05, 0x3e, 0x8c, 0xf0, 0xa0, 0xbe, 0x29, 0x0a, 0x8f, 0xbd,
  0x0a, 0xfc, 0xc5, 0x3d, 0x38, 0x7d, 0x19, 0xbd, 0xd2, 0x34, 0x74, 0x3e,
  0xe5, 0xc0, 0x9a, 0x3d, 0x0e, 0x80, 0x44, 0xbe, 0x02, 0x95, 0x3e, 0xbe,
  0xe1, 0x0d, 0x32, 0x3d, 0xdf, 0x93, 0x14, 0x3e, 0xb0, 0x53, 0x9c, 0xbd,
  0xb0, 0x11, 0xae, 0xbe, 0x9f, 0x68, 0x97, 0xbe, 0xcd, 0x5a, 0xa6, 0xbe,
  0xbf, 0xb2, 0x11, 0x3e, 0x76, 0x6d, 0x34, 0xbe, 0x19, 0xc7, 0x1e, 0xbe,
  0xdd, 0x94, 0x90, 0x3b, 0x14, 0x87, 0xf1, 0xbc, 0x68, 0x65, 0x8f, 0x3d,
  0x42, 0x73, 0x1b, 0xbd, 0x82, 0x71, 0x0f, 0xbd, 0xc5, 0xdf, 0x8e, 0xbd,
  0x13, 0x29, 0x8b, 0xbe, 0xa9, 0xdf, 0x00, 0xbe, 0x28, 0x94, 0x6c, 0xbe,
  0x6a, 0x9c, 0x98, 0x3d, 0xa1, 0xb4, 0x2c, 0x3e, 0x1a, 0xc9, 0xee, 0xbd,
  0xcf, 0x16, 0x5b, 0xbe, 0x40, 0xfc, 0x6d, 0xbc, 0x15, 0x49, 0x96, 0x3e,
  0xfd, 0x9c, 0x3c, 0x3d, 0x8f, 0xf8, 0x01, 0x3e, 0x9b, 0x5f, 0x84, 0xbe,
  0x7b, 0x10, 0x91, 0x3e, 0xf6, 0x8d, 0x70, 0xbe, 0x3e, 0x40, 0xfe, 0xbd,
  0x46, 0xca, 0x15, 0xbe, 0x96, 0xa4, 0x28, 0xbe, 0xd8, 0x62, 0xcc, 0x3d,
  0xa4, 0x71, 0x53, 0x3b, 0x02, 0xea, 0x8d, 0x3e, 0x48, 0x2c, 0xe8, 0x3c,
  0x18, 0xb9, 0x24, 0xbe, 0x44, 0x8d, 0x1e, 0xbd, 0x2c, 0x47, 0x89, 0x3c,
  0xb1, 0xd2, 0x3c, 0x3e, 0xb3, 0xf3, 0xdb, 0xbc, 0xb8, 0x10, 0x23, 0xbe,
  0x07, 0x32, 0xab, 0xbe, 0x1a, 0xf9, 0x12, 0x3e, 0xb3, 0x48, 0xfd, 0x3d,
  0x6b, 0x90, 0x7e, 0x3e, 0xad, 0xe9, 0xb6, 0xbb, 0x3c, 0x57, 0xac, 0xbb,
  0x27, 0x62, 0x9f, 0x3d, 0x4f, 0xd5, 0x36, 0x3d, 0x5d, 0x17, 0x01, 0xbc,
  0x9e, 0xf6, 0x77, 0x3d, 0x62, 0x50, 0x58, 0x3d, 0x7a, 0x8b, 0x39, 0xbd,
  0xde, 0x6e, 0x70, 0x3d, 0x6a, 0x9e, 0x4f, 0x3e, 0xf5, 0x1c, 0xd8, 0x3d,
  0x42, 0xf5, 0xcf, 0xbd, 0x47, 0xc6, 0x4b, 0xbd, 0x1f, 0x57, 0xcf, 0x3e,
  0x05, 0x52, 0xf2, 0x3d, 0x7b, 0x61, 0x2c, 0x3e, 0x9d, 0x64, 0x36, 0xbd,
  0xde, 0xc0, 0xc2, 0xbd, 0x24, 0xda, 0x8e, 0x3c, 0x60, 0x03, 0x2a, 0x3e,
  0x48, 0x1e, 0x83, 0x3d, 0x49, 0x0e, 0x96, 0xbe, 0x83, 0x63, 0x9b, 0x3d,
  0xdc, 0x62, 0x43, 0x3d, 0x08, 0x72, 0x44, 0x3e, 0x81, 0x21, 0xd0, 0xbd,
  0x77, 0xd1, 0xba, 0xba, 0xfc, 0x46, 0x55, 0x3e, 0xe3, 0x0e, 0xea, 0xbe,
  0x9b, 0x70, 0xb0, 0xbe, 0xc0, 0x0a, 0x6c, 0xbe, 0x96, 0x60, 0xe3, 0xbe,
  0xbb, 0x2d, 0x39, 0xbf, 0x4d, 0x7e, 0xa2, 0xbc, 0x83, 0xcc, 0x0e, 0x3c,
  0x17, 0x5d, 0x6f, 0xbd, 0x38, 0x69, 0xb6, 0xbe, 0xb3, 0xc2, 0x55, 0x3e,
  0x65, 0x64, 0xbd, 0x3b, 0xa3, 0xa0, 0xa7, 0x3d, 0xae, 0x29, 0x34, 0x3e,
  0xa9, 0xd0, 0x96, 0x3e, 0x1b, 0x3a, 0x99, 0xbe, 0x9a, 0x54, 0x5d, 0x3e,
  0x4f, 0x83, 0x08, 0xbf, 0x53, 0x48, 0x8a, 0x3e, 0x14, 0x86, 0xc7, 0x3e,
  0x5b, 0xc8, 0x0b, 0x3c, 0xdb, 0x8f, 0x19, 0xbf, 0x4e, 0x06, 0x21, 0x3c,
  0xaa, 0x35, 0x99, 0xbe, 0xa0, 0xf2, 0x32, 0x3e, 0xac, 0x1b, 0x7e, 0xbe,
  0x06, 0x52, 0x6a, 0x3e, 0xc8, 0x97, 0xe7, 0x3d, 0x6f, 0x8f, 0xbd, 0x3d,
  0xe3, 0x8e, 0x1d, 0x3e, 0x04, 0x6b, 0x57, 0x3d, 0x32, 0xae, 0x08, 0xbe,
  0xf5, 0xb1, 0xa9, 0x3d, 0x61, 0x40, 0x35, 0xbe, 0x88, 0xa7, 0x59, 0x3e,
  0x4d, 0x8d, 0xb5, 0x3e, 0x53, 0x71, 0x96, 0x3d, 0xe7, 0x90, 0x69, 0xbe,
  0xd9, 0x0e, 0x83, 0x3d, 0x82, 0xa0, 0x77, 0xbd, 0xf1, 0xb9, 0x80, 0x3e,
  0x6d, 0xf5, 0x32, 0xbe, 0x25, 0x5c, 0x03, 0xbe, 0xea, 0x31, 0x9f, 0x3e,
  0x4c, 0xfe, 0x84, 0x3d, 0x82, 0x4e, 0x2e, 0x3e, 0x65, 0x40, 0x0f, 0x3e,
  0x7e, 0x8a, 0x28, 0x3c, 0xbd, 0x42, 0x44, 0x3e, 0x93, 0x6e, 0x97, 0x3d,
  0xdc, 0x9c, 0x33, 0x3e, 0x56, 0x1a, 0x4d, 0x3e, 0xde, 0xe5, 0x86, 0x3d,
  0x9e, 0xa6, 0x58, 0x3b, 0xc4, 0x76, 0x3e, 0x3d, 0xea, 0x13, 0x5f, 0xbe,
  0xf7, 0x76, 0xa5, 0x3d, 0x16, 0xb7, 0xb1, 0x3d, 0xc2, 0xb4, 0x8c, 0xbd,
  0xaa, 0x6c, 0x68, 0xbc, 0xcb, 0xcd, 0x57, 0x3d, 0xb3, 0x44, 0xd6, 0x3d,
  0xc7, 0x90, 0xd3, 0x3d, 0x15, 0x4b, 0x39, 0xbe, 0x76, 0x76, 0x85, 0x3d,
  0x69, 0x06, 0xbe, 0xbe, 0xaf, 0x10, 0x81, 0x3b, 0x73, 0xbf, 0x1c, 0x3e,
  0xdd, 0x5b, 0x3e, 0x3e, 0x4f, 0x2a, 0xde, 0xbd, 0x68, 0x19, 0x86, 0x3d,
  0x21, 0x59, 0x25, 0xbe, 0x27, 0xbb, 0x2d, 0x3e, 0x1c, 0xd4, 0xf0, 0xbe,
  0xe4, 0x21, 0xf3, 0xbe, 0xd9, 0xf4, 0x3a, 0x3d, 0x3f, 0x89, 0x88, 0xbc,
  0x80, 0x84, 0x93, 0x3d, 0xff, 0x7a, 0x3d, 0xbe, 0xd9, 0x70, 0x22, 0xbf,
  0xeb, 0x7f, 0x35, 0x3e, 0xe0, 0x07, 0xb7, 0x3b, 0xdc, 0xac, 0xd8, 0x3b,
  0x66, 0xd9, 0xa9, 0x3b, 0xc4, 0xae, 0x56, 0x3d, 0x7d, 0xba, 0xb7, 0xbe,
  0x73, 0xcd, 0x21, 0xbc, 0xa0, 0x0a, 0x0b, 0xbf, 0x80, 0x59, 0xea, 0x3d,
  0x2a, 0x8f, 0xea, 0xbe, 0x08, 0x6a, 0xa5, 0x3a, 0xb4, 0x72, 0x44, 0x3d,
  0x88, 0x2c, 0x1a, 0xb7, 0x5d, 0xaf, 0x52, 0x3e, 0x36, 0x2c, 0x29, 0xbe,
  0x55, 0x74, 0x29, 0xbe, 0x08, 0x08, 0x19, 0x3c, 0xf0, 0x90, 0x1b, 0xbe,
  0x84, 0x0a, 0x10, 0xbe, 0xdc, 0x29, 0x31, 0xbd, 0xd0, 0x1a, 0x15, 0xbd,
  0x7a, 0x7c, 0x36, 0x3d, 0x94, 0xd0, 0x48, 0xbd, 0x65, 0x9a, 0xa9, 0xbe,
  0xb9, 0xde, 0x07, 0x3a, 0x33, 0xb3, 0xfd, 0xbb, 0xe6, 0x19, 0x1d, 0xbe,
  0xf3, 0xba, 0x5b, 0x3e, 0x74, 0x5e, 0x00, 0xbe, 0xa4, 0x97, 0x8d, 0xbe,
  0xde, 0x1e, 0x8e, 0x3e, 0x04, 0x0d, 0xe0, 0x3d, 0xa1, 0x3d, 0x7a, 0x3e,
  0x99, 0xde, 0xed, 0xbd, 0xbf, 0x8c, 0xe3, 0x3e, 0xa5, 0xf9, 0x75, 0x3e,
  0x06, 0xc7, 0x6c, 0x3e, 0xff, 0xa5, 0x2d, 0xbc, 0xb3, 0x0b, 0x06, 0x3e,
  0x0c, 0x28, 0x40, 0x3d, 0xf0, 0x8e, 0xa3, 0x3d, 0x9f, 0xb6, 0xbd, 0x3e,
  0xc3, 0x95, 0x31, 0x3e, 0xd4, 0xd7, 0xfd, 0xbe, 0x17, 0xd5, 0xbb, 0xbd,
  0x32, 0xc8, 0x2c, 0xbe, 0xbe, 0x7e, 0xcc, 0xbd, 0x3d, 0xa3, 0x48, 0x3e,
  0x7e, 0xd3, 0x1f, 0x3d, 0x54, 0x06, 0x0c, 0xbe, 0xa5, 0x92, 0x08, 0x3e,
  0xad, 0x65, 0xe3, 0xbd, 0xfc, 0xe3, 0x7e, 0x3e, 0xca, 0xd5, 0xa6, 0x3d,
  0xcd, 0x43, 0xb8, 0x3c, 0xf5, 0x2b, 0xa9, 0x3e, 0xed, 0xff, 0xf5, 0xbd,
  0x50, 0x5b, 0x53, 0xbe, 0x1a, 0x45, 0x27, 0x3e, 0xe0, 0xa4, 0x4a, 0xbf,
  0x2f, 0x6e, 0xe3, 0xbc, 0xda, 0x2c, 0x14, 0xbd, 0xf8, 0xcb, 0xa5, 0x3d,
  0xe4, 0x4b, 0xe8, 0xbe, 0x1a, 0x4b, 0x0f, 0xbe, 0x05, 0x17, 0xfe, 0xbb,
  0xc6, 0xe5, 0xab, 0x3e, 0xdb, 0xa1, 0xda, 0xbe, 0xde, 0x34, 0xe8, 0x3d,
  0x09, 0x20, 0xe3, 0x3c, 0x20, 0x25, 0xd3, 0xbd, 0x3c, 0x3a, 0xdf, 0xbe,
  0xf6, 0xb7, 0xaf, 0xbe, 0x7f, 0x8f, 0x07, 0xbe, 0x98, 0x70, 0x34, 0x3e,
  0x88, 0x94, 0xd1, 0xbe, 0xba, 0xdb, 0xd4, 0xbc, 0x3a, 0x06, 0xce, 0x3b,
  0x9a, 0x41, 0xf3, 0xb9, 0x5f, 0x12, 0x03, 0xbf, 0x2e, 0x20, 0x90, 0xbb,
  0x5d, 0x13, 0x71, 0xbe, 0xff, 0x55, 0x92, 0x3e, 0x04, 0x9f, 0x08, 0xbe,
  0x29, 0x34, 0xd5, 0x3d, 0x0e, 0x61, 0x09, 0xbf, 0x56, 0xea, 0x1d, 0xbe,
  0x32, 0x5e, 0x01, 0xbf, 0x1f, 0xdd, 0x41, 0xbd, 0x95, 0x6f, 0xba, 0x3d,
  0x0a, 0xda, 0x62, 0x3e, 0x85, 0xac, 0x75, 0x39, 0xaa, 0x52, 0x5a, 0x3d,
  0x38, 0x48, 0x0f, 0xbe, 0x81, 0x12, 0x01, 0x3d, 0xec, 0xf4, 0x5b, 0xbd,
  0x74, 0x13, 0x1d, 0x3e, 0xb8, 0x2f, 0x56, 0x3c, 0x23, 0xbc, 0xd0, 0x3e,
  0x4b, 0x85, 0xe8, 0xbd, 0xa9, 0x71, 0x78, 0x3e, 0xdb, 0xd0, 0x94, 0xbe,
  0x05, 0xa3, 0x17, 0xbe, 0x53, 0x5f, 0xc0, 0xbd, 0xfa, 0x0a, 0xcc, 0x3d,
  0x10, 0x75, 0x51, 0x3d, 0x45, 0x1f, 0xb1, 0xbc, 0xcb, 0x15, 0xda, 0xbd,
  0x05, 0x27, 0x75, 0xbd, 0xa1, 0xc6, 0x99, 0xbd, 0x16, 0x76, 0x4f, 0x3e,
  0x38, 0x8f, 0x8d, 0x3d, 0x7f, 0xba, 0xf4, 0x3c, 0x25, 0x8a, 0x88, 0xbe,
  0x48, 0x30, 0xae, 0x3d, 0x84, 0xdc, 0x46, 0x3c, 0x6e, 0x83, 0xb6, 0x3e,
  0x8d, 0xee, 0xac, 0xbd, 0x53, 0xc1, 0xf7, 0xbd, 0xd4, 0xc0, 0x0a, 0xbc,
  0x7b, 0x71, 0xbe, 0xbd, 0x51, 0x1b, 0x2d, 0x3e, 0xb9, 0x36, 0x2d, 0xbd,
  0x69, 0x45, 0x4b, 0xbe, 0xdf, 0xdf, 0xfc, 0xba, 0xf4, 0x72, 0x28, 0x3d,
  0xf1, 0xec, 0x37, 0x3e, 0xfd, 0x33, 0xbc, 0xbd, 0x8c, 0x7e, 0x21, 0xbe,
  0x85, 0x15, 0x4f, 0x3c, 0xcd, 0xe4, 0xbe, 0xbd, 0x9b, 0xf5, 0x33, 0xbe,
  0x95, 0x1e, 0x04, 0xbd, 0x9d, 0x89, 0xd7, 0xbc, 0x81, 0x82, 0x02, 0xbe,
  0x34, 0x6a, 0x0c, 0xbe, 0xaf, 0x09, 0x33, 0xbe, 0x45, 0x62, 0xd3, 0x3d,
  0x66, 0xdb, 0x1d, 0xbe, 0x4d, 0xbf, 0xb4, 0xbd, 0x33, 0x86, 0xae, 0xbe,
  0xfb, 0x6c, 0x15, 0x3e, 0x3a, 0xfc, 0xcf, 0xbd, 0x5f, 0x82, 0x48, 0x3d,
  0x74, 0xdf, 0x03, 0xbe, 0x01, 0x9b, 0x47, 0x3c, 0x84, 0xdd, 0xdd, 0xbd,
  0x8c, 0xdf, 0xc6, 0x3d, 0xf5, 0xec, 0x6c, 0x3c, 0xc0, 0xaa, 0x28, 0x3d,
  0x13, 0x27, 0x18, 0xbe, 0x9f, 0x35, 0xfa, 0xbd, 0x27, 0x57, 0x3c, 0xbe,
  0xae, 0xaf, 0xc2, 0x3d, 0xee, 0x1b, 0xb0, 0xbd, 0xa0, 0x63, 0xf0, 0x3d,
  0x94, 0xec, 0x21, 0xbe, 0x24, 0xa1, 0x26, 0xbd, 0x7a, 0x06, 0x53, 0xbe,
  0x5e, 0x7d, 0x31, 0xbc, 0x96, 0x70, 0x49, 0x3e, 0x1b, 0x79, 0xf7, 0xbd,
  0xaa, 0xcf, 0x05, 0x3d, 0x2b, 0x86, 0xee, 0x3d, 0x8f, 0xbd, 0xec, 0xbb,
  0x1d, 0xf1, 0x99, 0xbd, 0xd1, 0xd0, 0x56, 0xbe, 0x42, 0x3f, 0x16, 0xbd,
  0x73, 0x71, 0x7a, 0xbd, 0x21, 0x03, 0x72, 0x3d, 0x31, 0xed, 0x5f, 0xbd,
  0x5a, 0x86, 0x39, 0xbe, 0x43, 0xbd, 0x4d, 0xbb, 0xf7, 0x14, 0xaa, 0x3d,
  0x8e, 0x3c, 0xf2, 0x3c, 0x1b, 0x26, 0x3e, 0xbe, 0x96, 0x64, 0xd4, 0x3d,
  0x6b, 0xd9, 0xed, 0x3d, 0xba, 0xd4, 0x5a, 0x3d, 0x8b, 0x2d, 0xdd, 0xbc,
  0x33, 0xed, 0x2e, 0x3e, 0x18, 0xe8, 0x0a, 0x3e, 0xe1, 0xe7, 0x90, 0xbe,
  0x82, 0x2d, 0x1c, 0x3d, 0x79, 0xe0, 0x8c, 0xbd, 0x02, 0x96, 0x35, 0xbe,
  0xa1, 0x4a, 0x1c, 0x3d, 0x15, 0xcd, 0x26, 0xbe, 0x3b, 0xb1, 0x50, 0xbe,
  0xd1, 0x60, 0x7b, 0x3d, 0x56, 0xd0, 0x19, 0xbd, 0xd8, 0xe4, 0xf2, 0xbc,
  0xc8, 0xc2, 0x42, 0x3e, 0xe4, 0x9d, 0xc6, 0xbd, 0xfa, 0x34, 0xaf, 0xbc,
  0x34, 0xc5, 0x23, 0xbe, 0x72, 0x33, 0xb4, 0x3d, 0x0f, 0x1b, 0x8d, 0x3d,
  0x78, 0x86, 0x8f, 0xbe, 0xdf, 0x93, 0x3d, 0x3e, 0x3c, 0x7c, 0x1c, 0x3c,
  0x69, 0x67, 0x0e, 0xbd, 0xda, 0x18, 0x4d, 0xb9, 0x97, 0xf7, 0x03, 0x3e,
  0x23, 0x57, 0x8b, 0xbe, 0x9f, 0xd4, 0xfc, 0xbd, 0xd3, 0x37, 0x8f, 0xbd,
  0x7b, 0x31, 0x1f, 0xbc, 0xa4, 0xc6, 0x0c, 0x3e, 0x67, 0x6b, 0xc6, 0xbd,
  0x8e, 0x02, 0x44, 0xbe, 0xf8, 0x7b, 0xfc, 0xbd, 0x6f, 0x56, 0x9e, 0xbc,
  0xbb, 0xcf, 0x66, 0xbe, 0xc0, 0xaa, 0x24, 0xbe, 0xce, 0x9c, 0x28, 0x3c,
  0xb4, 0xeb, 0x3f, 0xbe, 0xeb, 0x5d, 0x96, 0xbd, 0xa6, 0x0a, 0xc2, 0x3d,
  0x35, 0x9b, 0x8b, 0xbc, 0x94, 0x02, 0x8e, 0xbe, 0x09, 0xbe, 0x09, 0xbe,
  0x78, 0xe5, 0xe5, 0x3d, 0x5c, 0xeb, 0xdc, 0xbd, 0xe1, 0x9d, 0x2b, 0xbe,
  0xb2, 0x47, 0x71, 0x3b, 0x0b, 0xa6, 0x69, 0xbe, 0x9c, 0x15, 0x07, 0xbe,
  0x15, 0xc5, 0xc9, 0x3c, 0xb7, 0x32, 0x75, 0xbe, 0xd5, 0x15, 0x7a, 0xbe,
  0xb1, 0xf5, 0x1d, 0x3d, 0x18, 0x33, 0x0e, 0xbe, 0x3f, 0xa7, 0x4c, 0x3d,
  0xd8, 0x72, 0x82, 0xbe, 0x6f, 0x32, 0x0a, 0xbe, 0xa2, 0x79, 0x28, 0x3d,
  0xa6, 0x28, 0x47, 0x3d, 0x1a, 0x9f, 0x1f, 0xbd, 0xfa, 0x39, 0xc4, 0x3d,
  0x19, 0xc6, 0x40, 0x3e, 0x08, 0x2a, 0xfc, 0xbd, 0x91, 0x46, 0xa2, 0x3d,
  0x62, 0x4a, 0x90, 0xbe, 0x0b, 0xcb, 0xf3, 0x3d, 0x87, 0x21, 0x7d, 0xbe,
  0xd7, 0x5b, 0xa1, 0xbd, 0x73, 0x61, 0x7b, 0xbe, 0x49, 0xf6, 0xf4, 0xbd,
  0x9a, 0x7e, 0x64, 0xbd, 0x6d, 0xc4, 0x9c, 0xbd, 0x26, 0xff, 0x07, 0x3e,
  0x9d, 0x18, 0x94, 0xbe, 0x3d, 0x5a, 0x4c, 0x3c, 0xaf, 0x40, 0x69, 0xbe,
  0x5b, 0xc0, 0x5d, 0xbe, 0xc4, 0x00, 0x03, 0x3e, 0xd3, 0x3a, 0x30, 0x3d,
  0xff, 0x6a, 0xc7, 0xbd, 0x52, 0x01, 0xa2, 0x3d, 0x3a, 0xed, 0x30, 0x3d,
  0x4f, 0x99, 0xff, 0xbc, 0x87, 0x28, 0x01, 0xbe, 0x33, 0x66, 0x13, 0xbd,
  0x1d, 0xaf, 0x4f, 0xbe, 0x15, 0xbc, 0x99, 0xbe, 0xd8, 0x4b, 0xc6, 0xbd,
  0x3d, 0x14, 0xf9, 0xbd, 0x7a, 0x01, 0xa8, 0xbe, 0xa3, 0x4e, 0x5f, 0x3d,
  0x34, 0x1c, 0xa1, 0x3d, 0x00, 0xbd, 0x8d, 0x3d, 0x72, 0x88, 0xab, 0x3d,
  0xd0, 0x1b, 0x71, 0xbe, 0x5e, 0x70, 0x0b, 0xbe, 0xc8, 0x5a, 0x1d, 0xbe,
  0x01, 0x01, 0x1e, 0x3e, 0x09, 0x43, 0xd9, 0x3c, 0xfa, 0x55, 0x60, 0xbe,
  0x9a, 0x77, 0x6b, 0xbe, 0x30, 0x18, 0x0a, 0x3c, 0x29, 0xe6, 0xb6, 0x3c,
  0xce, 0xcc, 0x1a, 0x3e, 0xa2, 0x91, 0x82, 0xbd, 0x30, 0x27, 0xb7, 0x3c,
  0x6c, 0x15, 0xf2, 0xbd, 0xca, 0x3d, 0x8c, 0xbe, 0x4b, 0xb5, 0xf6, 0xbd,
  0x30, 0x83, 0x5d, 0xbd, 0x8b, 0xb5, 0x24, 0xbe, 0x14, 0x74, 0x1b, 0xbe,
  0xef, 0xc1, 0x57, 0xbe, 0x1e, 0xc3, 0x33, 0xbe, 0xe9, 0x65, 0xef, 0x3d,
  0xea, 0xb8, 0xed, 0xbd, 0xc1, 0x4d, 0xbb, 0xbb, 0x50, 0x8f, 0x07, 0xbe,
  0x30, 0xb1, 0x0a, 0x3e, 0xbe, 0xb1, 0xde, 0x3d, 0xd2, 0xa8, 0xbf, 0x3d,
  0x9d, 0xd1, 0x8c, 0xbe, 0x3c, 0x77, 0x53, 0xbd, 0x2a, 0xf3, 0x2c, 0x3d,
  0x34, 0xd8, 0x0b, 0xbe, 0xf0, 0x7e, 0x33, 0x3e, 0x11, 0x89, 0x28, 0x3e,
  0x1b, 0x2a, 0x11, 0x3e, 0x3f, 0x96, 0x7c, 0x3d, 0x6c, 0xa2, 0x3a, 0xbe,
  0x7f, 0x55, 0x63, 0xbe, 0xf7, 0x9a, 0x3d, 0xbe, 0x57, 0x0c, 0x08, 0xbe,
  0x51, 0xed, 0x28, 0xbd, 0x33, 0xc6, 0x72, 0x3d, 0x30, 0x83, 0x03, 0xbe,
  0x2d, 0xa6, 0xe0, 0x3d, 0x41, 0x2f, 0xc0, 0xbe, 0x43, 0xab, 0x33, 0x3e,
  0xe5, 0xd0, 0x0a, 0xbe, 0x26, 0x29, 0x7f, 0xbd, 0x76, 0x15, 0x47, 0xbe,
  0x2f, 0x85, 0xe7, 0x3d, 0x74, 0x21, 0xfa, 0xbd, 0xe5, 0xd4, 0x93, 0xbd,
  0x05, 0x28, 0x01, 0xbd, 0xa7, 0xb0, 0x46, 0xbe, 0x61, 0xcf, 0x00, 0xbe,
  0xea, 0x33, 0x10, 0x3e, 0xc6, 0x53, 0x67, 0xbd, 0x51, 0x50, 0x47, 0x3d,
  0x0d, 0xb8, 0x4b, 0xbe, 0x92, 0x04, 0x51, 0xbe, 0x38, 0xce, 0x74, 0xbe,
  0xc3, 0xf2, 0xc6, 0xbd, 0xea, 0xa8, 0xa5, 0x3d, 0x54, 0xeb, 0x83, 0x3b,
  0x30, 0xa8, 0x5b, 0xbe, 0xd2, 0x08, 0xa1, 0x3d, 0x3a, 0x13, 0x10, 0x3d,
  0x01, 0x12, 0xd1, 0xbb, 0x37, 0x4f, 0x75, 0x3c, 0x8e, 0x18, 0xdb, 0x3c,
  0x3c, 0x10, 0x90, 0xbe, 0x4e, 0x73, 0x5d, 0xbe, 0x9f, 0xce, 0x92, 0x3d,
  0x7f, 0x50, 0x0e, 0xbd, 0xc8, 0x36, 0x04, 0x3d, 0xaa, 0xd6, 0xc0, 0xbd,
  0xf5, 0x7c, 0x97, 0xbe, 0x1f, 0x70, 0x54, 0xbd, 0x50, 0x41, 0x54, 0x3d,
  0x5c, 0x1c, 0xa9, 0x3d, 0x74, 0x61, 0x3f, 0xbe, 0x59, 0x00, 0x97, 0xbe,
  0xff, 0x8f, 0x54, 0x3c, 0x3f, 0xa6, 0x72, 0x3d, 0x3d, 0xe3, 0x8a, 0x3d,
  0xfc, 0x1e, 0x32, 0xbe, 0x5a, 0x62, 0x72, 0xbe, 0xad, 0x76, 0x21, 0xbe,
  0x83, 0x07, 0x17, 0xbe, 0x4e, 0x16, 0x89, 0xbe, 0x3e, 0x16, 0x81, 0x3d,
  0xcb, 0xd6, 0xf8, 0x3d, 0x92, 0xbc, 0xf1, 0xbc, 0x95, 0xf2, 0x4a, 0xbe,
  0x31, 0xaf, 0x1e, 0xbe, 0xae, 0x47, 0xbe, 0x3d, 0x5a, 0xb5, 0x30, 0xbe,
  0x8f, 0xc7, 0xbb, 0x3c, 0xa8, 0x6f, 0xd9, 0x3d, 0x7a, 0x3e, 0x69, 0x3d,
  0x96, 0xbb, 0xc1, 0x3d, 0x3b, 0xbc, 0x2e, 0xbe, 0x2c, 0x98, 0x78, 0xbe,
  0x75, 0xce, 0xc4, 0xbd, 0x9f, 0xad, 0xca, 0xbd, 0x10, 0xb6, 0x23, 0xbc,
  0x27, 0x2b, 0x9e, 0x3d, 0x3c, 0x7e, 0x17, 0x3e, 0x08, 0xc8, 0x69, 0xbe,
  0x17, 0x63, 0xf0, 0x3d, 0x27, 0x57, 0x72, 0xbe, 0x67, 0x38, 0x1f, 0xbe,
  0xfb, 0xa8, 0x8f, 0x3d, 0x73, 0x11, 0x26, 0xbe, 0x59, 0xca, 0x7b, 0xbd,
  0xa4, 0x45, 0x26, 0x3e, 0x5f, 0x1e, 0x53, 0xbe, 0x65, 0xab, 0xda, 0xbd,
  0xa9, 0x59, 0x98, 0xbe, 0xec, 0x86, 0x5f, 0xbe, 0x41, 0x52, 0x87, 0xbd,
  0x0a, 0xb1, 0xe2, 0x3d, 0xc6, 0x76, 0xad, 0xbd, 0x30, 0xca, 0x17, 0x3e,
  0xee, 0xec, 0xad, 0x3d, 0x7b, 0x66, 0x40, 0x3e, 0x5c, 0x17, 0x81, 0x3d,
  0x84, 0xf5, 0x41, 0xbe, 0x6e, 0x9a, 0x26, 0xbe, 0xeb, 0x16, 0xbe, 0xbd,
  0xaa, 0x75, 0x45, 0xbe, 0x59, 0x84, 0x00, 0x3e, 0xda, 0x62, 0xe2, 0xbc,
  0x49, 0xdb, 0x43, 0xbe, 0x09, 0x47, 0x6a, 0xbe, 0x01, 0x05, 0xd2, 0xbd,
  0x8e, 0xa5, 0x15, 0xbe, 0x46, 0x5f, 0x00, 0x3e, 0x75, 0x7c, 0x1f, 0x3e,
  0xca, 0xec, 0x22, 0x3e, 0x05, 0xfe, 0x8b, 0xbe, 0x75, 0xe5, 0x6c, 0xbe,
  0x39, 0xf6, 0x0d, 0x3e, 0x42, 0xb5, 0x3e, 0xbe, 0x0b, 0x11, 0x6d, 0xbe,
  0x9b, 0xa1, 0x81, 0x3d, 0x89, 0xd3, 0x44, 0x3e, 0x3f, 0xf2, 0xa5, 0x3c,
  0x14, 0xb1, 0x06, 0x3e, 0xe3, 0x84, 0x0c, 0xbe, 0x70, 0x14, 0x63, 0xbd,
  0x77, 0xe7, 0x03, 0xbe, 0xe4, 0x58, 0x0c, 0xbe, 0x77, 0x50, 0xd0, 0x3c,
  0xf6, 0x2a, 0x4c, 0xbe, 0x84, 0x91, 0xd6, 0xbc, 0xe5, 0xfa, 0x7c, 0xbd,
  0xab, 0xf4, 0x62, 0xbd, 0x2d, 0x1d, 0x93, 0xbd, 0x9b, 0x26, 0xd6, 0x3d,
  0x00, 0xf0, 0xa9, 0xbc, 0xe9, 0x51, 0x3d, 0x3e, 0xb5, 0xfc, 0x8d, 0x3d,
  0x10, 0x5e, 0x36, 0xbe, 0xc8, 0x44, 0x61, 0xbe, 0x22, 0xe1, 0xca, 0x3d,
  0x00, 0xed, 0x39, 0xbe, 0xd7, 0x88, 0x5a, 0xbc, 0xb3, 0xf2, 0x80, 0xbe,
  0xc9, 0xa0, 0x98, 0xbd, 0x5e, 0x4d, 0x02, 0xbe, 0x83, 0x37, 0x8d, 0xbc,
  0xfd, 0x50, 0xa7, 0xbd, 0xb2, 0x60, 0x5a, 0xbe, 0x6a, 0x69, 0x72, 0x3d,
  0x57, 0xac, 0x8e, 0xbe, 0xee, 0xb2, 0x6e, 0xbe, 0xfd, 0x5c, 0xd2, 0xbb,
  0xf4, 0x18, 0x94, 0x3d, 0xa0, 0xba, 0x7a, 0x3d, 0x23, 0xe6, 0xaf, 0xbd,
  0xb3, 0xe6, 0xd9, 0xbd, 0x69, 0x8d, 0x82, 0xbe, 0xc9, 0x55, 0x0d, 0x3d,
  0x46, 0xaf, 0x9f, 0x3c, 0xdf, 0x1d, 0x52, 0x3c, 0xf6, 0x9f, 0x8a, 0xbd,
  0x87, 0x93, 0xd7, 0x3c, 0xeb, 0x24, 0x33, 0xbe, 0x2c, 0xb8, 0x0c, 0x3e,
  0x47, 0x98, 0x88, 0xbd, 0x13, 0xf2, 0x80, 0xbe, 0x07, 0x98, 0xa1, 0xbd,
  0x72, 0xf1, 0x9a, 0xbc, 0x97, 0x17, 0xd6, 0xbd, 0xb7, 0xe9, 0xe2, 0x3d,
  0x0f, 0xc0, 0xef, 0x3d, 0x74, 0xa6, 0x72, 0xbe, 0x59, 0x9c, 0x81, 0xbe,
  0xdd, 0x90, 0x22, 0xbe, 0x69, 0x27, 0x40, 0xbe, 0x09, 0x48, 0x64, 0xbe,
  0xca, 0x27, 0x31, 0x3d, 0x87, 0xd6, 0x07, 0x3d, 0x75, 0x40, 0xa5, 0xbe,
  0x52, 0xdc, 0x42, 0xbe, 0x73, 0xcf, 0xae, 0x3e, 0xd4, 0x08, 0x4a, 0xbe,
  0x5f, 0x3c, 0x98, 0xbc, 0x7a, 0x44, 0xa0, 0x3c, 0x3e, 0x02, 0xce, 0xbc,
  0xd9, 0x32, 0x33, 0xbe, 0x88, 0x72, 0xd3, 0xbd, 0xf9, 0xc4, 0x74, 0x3d,
  0xe0, 0xd2, 0xa3, 0xbe, 0x21, 0x71, 0x05, 0xbf, 0xd5, 0xfa, 0x2d, 0xbd,
  0x06, 0x63, 0xd0, 0xbd, 0x26, 0xf8, 0x7a, 0xbd, 0x43, 0x97, 0x85, 0x3c,
  0xef, 0x10, 0xa7, 0xbe, 0x64, 0xc2, 0x0c, 0xbd, 0x89, 0x1d, 0x0d, 0xbe,
  0x7b, 0x7f, 0x53, 0x3d, 0xb6, 0x1e, 0xbb, 0x3c, 0x80, 0x3f, 0x54, 0xbe,
  0x88, 0xcb, 0x49, 0x3e, 0xd3, 0x69, 0xcc, 0xbd, 0xfa, 0x8a, 0x3e, 0x3e,
  0x3a, 0xf4, 0x10, 0xbd, 0xca, 0x66, 0x04, 0xbe, 0xa3, 0x53, 0xe8, 0x3c,
  0xfe, 0x91, 0x47, 0x3e, 0x22, 0x6b, 0x46, 0x3e, 0x75, 0x87, 0x91, 0xbd,
  0xa7, 0x08, 0xb0, 0xbe, 0x91, 0xf1, 0x70, 0xbe, 0xfd, 0xf0, 0x09, 0xbe,
  0xa9, 0x25, 0xe8, 0x3c, 0xcf, 0x49, 0x58, 0xbd, 0x40, 0x1a, 0x67, 0xbe,
  0xa8, 0x54, 0xea, 0x3d, 0x0a, 0x94, 0x9d, 0x3e, 0x20, 0x31, 0x9a, 0xbd,
  0x0e, 0x69, 0x59, 0xbd, 0x9a, 0x22, 0x9f, 0xbe, 0x86, 0xb7, 0x91, 0xbe,
  0x63, 0x70, 0xab, 0xbe, 0xb1, 0xd2, 0xe5, 0x3d, 0x96, 0x8c, 0xb6, 0xbc,
  0xc4, 0xdf, 0x11, 0xbe, 0x9e, 0xc6, 0xd1, 0xbe, 0xca, 0xd1, 0x88, 0xbe,
  0xc9, 0x97, 0x19, 0xbe, 0x44, 0x51, 0x56, 0x3e, 0xa8, 0x78, 0xe1, 0xbe,
  0x99, 0x33, 0xdf, 0x3b, 0xd0, 0x69, 0x86, 0x3d, 0x74, 0xd1, 0x87, 0xbc,
  0xa0, 0xf5, 0xb3, 0xbd, 0xaf, 0x75, 0xe5, 0x3b, 0xe1, 0xa8, 0x9a, 0xbe,
  0x82, 0x6c, 0x2b, 0xbe, 0x5f, 0x8c, 0x82, 0xbe, 0xea, 0x9b, 0xdf, 0xbc,
  0xcb, 0x34, 0x0e, 0xbe, 0xec, 0x55, 0x31, 0xbe, 0x7a, 0xf5, 0x94, 0xbd,
  0x2d, 0xde, 0xf7, 0xbc, 0x87, 0xea, 0x78, 0xbd, 0xb2, 0x18, 0x5d, 0x3e,
  0x4d, 0xfb, 0xbc, 0x3d, 0xb8, 0xbf, 0x9e, 0xbd, 0x2a, 0x07, 0x11, 0x3c,
  0x3a, 0x3d, 0x02, 0x3e, 0xa2, 0x08, 0xa7, 0x3c, 0x0c, 0x6f, 0xe4, 0x3d,
  0x62, 0x11, 0xb7, 0xbe, 0x2f, 0xec, 0xc8, 0xbd, 0xae, 0x1f, 0x69, 0x39,
  0x07, 0x0d, 0x28, 0x3e, 0x65, 0xac, 0xf9, 0x3e, 0x7a, 0xa9, 0x37, 0xbe,
  0xdb, 0x12, 0xc4, 0x3c, 0x8b, 0x30, 0xfd, 0xbd, 0xe8, 0x3c, 0x0f, 0xbd,
  0xdf, 0xd2, 0x98, 0x3e, 0x4e, 0x44, 0x9c, 0x3d, 0xea, 0xef, 0x8f, 0x3d,
  0xea, 0xa4, 0x13, 0xbe, 0xf9, 0x26, 0xdc, 0xbd, 0x59, 0x01, 0x3a, 0x3e,
  0x7c, 0x0b, 0x6f, 0x3e, 0xcc, 0x57, 0xee, 0x3d, 0x9d, 0x53, 0xda, 0x3d,
  0x24, 0xa8, 0x80, 0xbd, 0xa5, 0xa2, 0xf4, 0x3d, 0xfc, 0x0c, 0xda, 0x3e,
  0x5f, 0x5c, 0x74, 0xbd, 0xfc, 0x60, 0x03, 0xbe, 0x2e, 0x33, 0x4c, 0xbe,
  0x60, 0xc0, 0x28, 0x3e, 0x52, 0x3b, 0xb8, 0x3d, 0x6e, 0x43, 0xa8, 0xbd,
  0x04, 0xf9, 0xbc, 0xbc, 0xea, 0xc6, 0x34, 0xbd, 0x06, 0x49, 0x28, 0x3e,
  0x8a, 0xe2, 0x69, 0xbe, 0xda, 0xde, 0x99, 0xbd, 0xdd, 0x3e, 0xd5, 0x3d,
  0xb5, 0x3f, 0x20, 0xbd, 0xad, 0x3e, 0x33, 0xbe, 0xb8, 0x3f, 0xc4, 0xbe,
  0x74, 0x22, 0x13, 0xbd, 0x9f, 0x3f, 0x41, 0xbe, 0x87, 0x7c, 0xa6, 0x3d,
  0x50, 0x8c, 0x4d, 0xbe, 0xb7, 0xe3, 0xe2, 0xbd, 0x4f, 0xdc, 0x56, 0xbd,
  0x50, 0x46, 0x45, 0xbe, 0x2b, 0xad, 0x81, 0xbc, 0x9d, 0x46, 0xa1, 0xbd,
  0x38, 0x43, 0x12, 0x3e, 0xfe, 0x1b, 0x1e, 0xbe, 0xfb, 0x24, 0x73, 0xbc,
  0x42, 0x4b, 0xed, 0xbd, 0x8b, 0x5d, 0xe1, 0x3a, 0x1d, 0x5e, 0x22, 0xbd,
  0xe8, 0x49, 0xfa, 0x3b, 0x33, 0x0b, 0x96, 0x3d, 0xcf, 0x57, 0xf2, 0x3d,
  0xa0, 0x91, 0x0f, 0x3e, 0xda, 0x36, 0x35, 0xbd, 0xbb, 0x25, 0x3d, 0x3d,
  0x1b, 0xf0, 0xa5, 0x3c, 0xd8, 0xef, 0x8c, 0xbc, 0x7d, 0x23, 0x1d, 0xbe,
  0x1c, 0xb4, 0x74, 0x3c, 0x9b, 0xfe, 0x18, 0x3e, 0xbe, 0x96, 0x6e, 0xbe,
  0x76, 0x3a, 0xa9, 0xbd, 0x24, 0xf8, 0x7a, 0xbe, 0xba, 0x7e, 0x42, 0xbe,
  0xbc, 0x3d, 0x1a, 0xbd, 0x60, 0x58, 0x47, 0xbd, 0x94, 0x1f, 0x9e, 0x3d,
  0xcc, 0x56, 0xa1, 0x3d, 0x0a, 0xad, 0x9f, 0x3d, 0x1a, 0x95, 0xa3, 0xbe,
  0x0c, 0xc5, 0x89, 0xbc, 0x1a, 0x7e, 0x75, 0xbd, 0xc4, 0xa8, 0x0a, 0xbe,
  0x54, 0x31, 0xdf, 0xbd, 0x98, 0xf8, 0xbb, 0xbb, 0xfa, 0x34, 0xe2, 0x3d,
  0xac, 0x8a, 0x45, 0x3e, 0x5d, 0x03, 0x19, 0xbe, 0xab, 0x48, 0x91, 0x3c,
  0xef, 0x65, 0x11, 0xbe, 0x82, 0x75, 0xfd, 0xbd, 0x8a, 0x09, 0x30, 0xbe,
  0xe9, 0x80, 0x30, 0x3d, 0xa4, 0x18, 0x62, 0xbe, 0xf9, 0x72, 0x5a, 0xbe,
  0xd1, 0x1b, 0x77, 0xbd, 0x64, 0xd6, 0x38, 0x3e, 0xeb, 0xbd, 0x90, 0xbd,
  0xfd, 0xdb, 0xdb, 0x3d, 0x90, 0x1f, 0x3d, 0xbe, 0x9c, 0x2d, 0x5f, 0xbb,
  0x2f, 0x84, 0x1f, 0x3e, 0x40, 0x7a, 0x36, 0xbe, 0xfe, 0xa8, 0x3f, 0x3d,
  0xec, 0xf6, 0xb4, 0x3c, 0x1d, 0x74, 0x36, 0xbe, 0x38, 0x88, 0xd1, 0xbd,
  0xa9, 0x4c, 0x00, 0x3e, 0xf0, 0x26, 0x54, 0x3e, 0xd8, 0xf7, 0x4b, 0xbe,
  0xb3, 0x78, 0x37, 0xbe, 0xc0, 0x14, 0x92, 0xbe, 0xa8, 0x71, 0xeb, 0xbd,
  0x93, 0xd2, 0x15, 0xbe, 0x5e, 0xd5, 0x01, 0xbe, 0x1b, 0xfe, 0xc0, 0xbc,
  0x55, 0xa2, 0x2e, 0x3d, 0xed, 0xc2, 0x04, 0x3e, 0x1f, 0x1e, 0x1f, 0xbe,
  0xa1, 0x67, 0x35, 0xbe, 0xac, 0xae, 0xe5, 0xbc, 0xb3, 0xc8, 0x25, 0xbe,
  0xaa, 0xc3, 0x82, 0x3d, 0x35, 0x15, 0x1d, 0xbe, 0x17, 0x85, 0xec, 0xbd,
  0xc9, 0x2c, 0xb9, 0xbd, 0xca, 0x85, 0x76, 0xbe, 0x60, 0xb5, 0x92, 0xbd,
  0x23, 0x82, 0xd3, 0x3d, 0xbc, 0x81, 0x09, 0xbe, 0xe8, 0xd4, 0x17, 0xbe,
  0xde, 0x45, 0x2e, 0x3d, 0x9a, 0x8a, 0x19, 0xbd, 0xd5, 0xec, 0xda, 0xbd,
  0xfb, 0x23, 0x8d, 0xb8, 0x3e, 0x30, 0x0a, 0xbe, 0x5a, 0x82, 0xaa, 0x3d,
  0x28, 0x8c, 0xbd, 0x3c, 0xd0, 0x4f, 0x00, 0xbe, 0xc4, 0xd2, 0xa8, 0x3d,
  0xf9, 0x93, 0x06, 0xbe, 0xd5, 0xe0, 0x4f, 0x3d, 0xa4, 0x09, 0x1d, 0x3b,
  0xd3, 0xa2, 0x41, 0xbe, 0xc4, 0x1a, 0x52, 0x3e, 0x1f, 0x73, 0xc8, 0xbd,
  0xc2, 0xbf, 0xb6, 0x3d, 0xe7, 0xc3, 0x3b, 0x3d, 0xf4, 0x8c, 0x7a, 0xbc,
  0x8e, 0xc7, 0x23, 0xbd, 0xfe, 0xfd, 0xb3, 0xbc, 0x0e, 0x8b, 0xfc, 0x3d,
  0x22, 0x1c, 0x7f, 0xbe, 0xc5, 0x94, 0xa7, 0xbd, 0x42, 0x0f, 0xa7, 0xbd,
  0x54, 0x7f, 0x3c, 0xbe, 0xc0, 0x61, 0x01, 0xbe, 0x4a, 0xfe, 0xff, 0xff,
  0x10, 0x00, 0x00, 0x00, 0x05, 0x00, 0x00, 0x00, 0x14, 0x00, 0x00, 0x00,
  0x2c, 0x00, 0x00, 0x00, 0x02, 0x00, 0x00, 0x00, 0x10, 0x00, 0x00, 0x00,
  0x70, 0x00, 0x00, 0x00, 0x17, 0x00, 0x00, 0x00, 0x73, 0x65, 0x71, 0x75,
  0x65, 0x6e, 0x74, 0x69, 0x61, 0x6c, 0x2f, 0x64, 0x65, 0x6e, 0x73, 0x65,
  0x2f, 0x4d, 0x61, 0x74, 0x4d, 0x75, 0x6c, 0x00, 0x38, 0xfe, 0xff, 0xff,
  0x2e, 0xff, 0xff, 0xff, 0x04, 0x00, 0x00, 0x00, 0x08, 0x00, 0x00, 0x00,
  0xff, 0xff, 0xff, 0xff, 0x70, 0x00, 0x00, 0x00, 0x00, 0x00, 0x0e, 0x00,
  0x18, 0x00, 0x08, 0x00, 0x07, 0x00, 0x0c, 0x00, 0x10, 0x00, 0x14, 0x00,
  0x0e, 0x00, 0x00, 0x00, 0x00, 0x00, 0x00, 0x02, 0x10, 0x00, 0x00, 0x00,
  0x04, 0x00, 0x00, 0x00, 0x10, 0x00, 0x00, 0x00, 0x2c, 0x00, 0x00, 0x00,
  0x01, 0x00, 0x00, 0x00, 0x02, 0x00, 0x00, 0x00, 0x18, 0x00, 0x00, 0x00,
  0x73, 0x65, 0x71, 0x75, 0x65, 0x6e, 0x74, 0x69, 0x61, 0x6c, 0x2f, 0x66,
  0x6c, 0x61, 0x74, 0x74, 0x65, 0x6e, 0x2f, 0x43, 0x6f, 0x6e, 0x73, 0x74,
  0x00, 0x00, 0x00, 0x00, 0xa0, 0xfe, 0xff, 0xff, 0x96, 0xff, 0xff, 0xff,
  0x04, 0x00, 0x00, 0x00, 0x0c, 0x00, 0x00, 0x00, 0x7b, 0xe3, 0x8c, 0xbf,
  0xa3, 0x8f, 0x64, 0x3f, 0xa2, 0x9a, 0xf7, 0xbd, 0x0a, 0xff, 0xff, 0xff,
  0x10, 0x00, 0x00, 0x00, 0x03, 0x00, 0x00, 0x00, 0x10, 0x00, 0x00, 0x00,
  0x3c, 0x00, 0x00, 0x00, 0x01, 0x00, 0x00, 0x00, 0x03, 0x00, 0x00, 0x00,
  0x29, 0x00, 0x00, 0x00, 0x73, 0x65, 0x71, 0x75, 0x65, 0x6e, 0x74, 0x69,
  0x61, 0x6c, 0x2f, 0x64, 0x65, 0x6e, 0x73, 0x65, 0x5f, 0x31, 0x2f, 0x42,
  0x69, 0x61, 0x73, 0x41, 0x64, 0x64, 0x2f, 0x52, 0x65, 0x61, 0x64, 0x56,
  0x61, 0x72, 0x69, 0x61, 0x62, 0x6c, 0x65, 0x4f, 0x70, 0x00, 0x00, 0x00,
  0x60, 0xff, 0xff, 0xff, 0x00, 0x00, 0x06, 0x00, 0x08, 0x00, 0x04, 0x00,
  0x06, 0x00, 0x00, 0x00, 0x04, 0x00, 0x00, 0x00, 0x40, 0x00, 0x00, 0x00,
  0x6c, 0x21, 0x89, 0x40, 0xda, 0x9d, 0x31, 0xbf, 0xff, 0x26, 0x0f, 0xbe,
  0x63, 0xe8, 0x9e, 0x3f, 0x43, 0x45, 0xd7, 0xbd, 0x54, 0x8a, 0xf4, 0xbd,
  0x24, 0x1d, 0x6d, 0x40, 0x8d, 0xff, 0x61, 0x3e, 0xd4, 0x28, 0xa2, 0xbe,
  0x93, 0x90, 0x9c, 0x40, 0x3c, 0xbe, 0xc1, 0xbf, 0x81, 0xfb, 0xff, 0xbd,
  0x23, 0x4d, 0x14, 0xbe, 0x08, 0x8c, 0x20, 0xbe, 0x0d, 0x9a, 0xc9, 0xbe,
  0xab, 0x0e, 0xf8, 0xbd, 0xae, 0xff, 0xff, 0xff, 0x10, 0x00, 0x00, 0x00,
  0x02, 0x00, 0x00, 0x00, 0x10, 0x00, 0x00, 0x00, 0x3c, 0x00, 0x00, 0x00,
  0x01, 0x00, 0x00, 0x00, 0x10, 0x00, 0x00, 0x00, 0x27, 0x00, 0x00, 0x00,
  0x73, 0x65, 0x71, 0x75, 0x65, 0x6e, 0x74, 0x69, 0x61, 0x6c, 0x2f, 0x64,
  0x65, 0x6e, 0x73, 0x65, 0x2f, 0x42, 0x69, 0x61, 0x73, 0x41, 0x64, 0x64,
  0x2f, 0x52, 0x65, 0x61, 0x64, 0x56, 0x61, 0x72, 0x69, 0x61, 0x62, 0x6c,
  0x65, 0x4f, 0x70, 0x00, 0x04, 0x00, 0x06, 0x00, 0x04, 0x00, 0x00, 0x00,
  0x00, 0x00, 0x0e, 0x00, 0x14, 0x00, 0x04, 0x00, 0x00, 0x00, 0x08, 0x00,
  0x0c, 0x00, 0x10, 0x00, 0x0e, 0x00, 0x00, 0x00, 0x10, 0x00, 0x00, 0x00,
  0x01, 0x00, 0x00, 0x00, 0x1c, 0x00, 0x00, 0x00, 0x2c, 0x00, 0x00, 0x00,
  0x04, 0x00, 0x00, 0x00, 0x01, 0x00, 0x00, 0x00, 0x40, 0x00, 0x00, 0x00,
  0x03, 0x00, 0x00, 0x00, 0x01, 0x00, 0x00, 0x00, 0x0c, 0x00, 0x00, 0x00,
  0x63, 0x6f, 0x6e, 0x76, 0x32, 0x64, 0x5f, 0x69, 0x6e, 0x70, 0x75, 0x74,
  0x00, 0x00, 0x00, 0x00, 0xfc, 0xff, 0xff, 0xff, 0x04, 0x00, 0x04, 0x00,
  0x04, 0x00, 0x00, 0x00
};
unsigned int _content_mbed07_model_model_tflite_len = 12316;
